<unk>	0
<s>	0
</s>	0
-	-1.84373
▁	-3.59478
m	-3.97603
H	-4.16324
▁ca	-4.33137
M	-4.61352
a	-4.80598
▁na	-5.05746
sya	-5.29982
e	-5.32804
▁iti	-5.35923
▁sa	-5.40606
ca	-5.45535
eva	-5.69383
aH	-5.78597
▁tu	-5.81515
▁tat	-5.87993
▁eva	-5.91926
▁api	-5.93264
A	-5.97199
am	-5.97577
api	-6.03639
▁a	-6.06837
AH	-6.0758
▁vA	-6.11299
▁hi	-6.1214
asya	-6.12466
▁mahA	-6.13751
i	-6.13793
▁taTA	-6.17126
▁yat	-6.24181
▁asti	-6.25429
EH	-6.28648
iti	-6.28731
ya	-6.30356
▁vi	-6.31287
▁te	-6.32053
▁tatas	-6.3279
I	-6.34027
▁tasya	-6.34037
na	-6.41555
▁Bavati	-6.41811
n	-6.43181
▁sarva	-6.44646
ena	-6.45444
▁tatra	-6.45664
▁su	-6.45814
▁saH	-6.47383
▁yaTA	-6.4962
tu	-6.54824
taH	-6.55572
At	-6.56389
yA	-6.6399
An	-6.66176
▁AsIt	-6.66463
t	-6.66617
▁sA	-6.66904
te	-6.67404
▁tam	-6.70015
▁sva	-6.70199
▁yaH	-6.7088
▁pra	-6.71255
▁uvAca	-6.71639
ni	-6.72926
O	-6.7492
▁iva	-6.75427
▁tad	-6.79701
▁saha	-6.80173
▁vE	-6.80878
yAH	-6.83823
▁evam	-6.8886
▁punar	-6.9024
▁saM	-6.9044
▁aTa	-6.92199
▁tadA	-6.93143
▁me	-6.93797
▁asya	-6.94658
aM	-6.96014
tA	-6.98043
o	-7.00798
ezu	-7.0195
▁tena	-7.02297
vi	-7.03946
BiH	-7.0401
Aya	-7.04169
zu	-7.04473
ka	-7.05378
▁A	-7.07678
▁sam	-7.09296
▁nAma	-7.09864
▁etat	-7.12488
▁prati	-7.13567
▁sma	-7.13701
▁santi	-7.1647
Adi	-7.16916
Ani	-7.19122
▁kim	-7.19774
▁atra	-7.21037
yAm	-7.23317
▁aBavat	-7.2407
Am	-7.26659
nA	-7.2667
ti	-7.27567
ta	-7.27596
kam	-7.29908
▁SrI	-7.30743
s	-7.32636
▁syAt	-7.33043
▁deva	-7.33298
tvam	-7.33406
▁pari	-7.33815
▁Bavet	-7.3384
▁aham	-7.35753
▁mama	-7.3605
▁Darma	-7.36655
▁kftvA	-7.36806
tAm	-7.38788
▁brahma	-7.41009
AnAm	-7.4208
▁sarve	-7.42418
kaH	-7.42706
vat	-7.4326
▁ye	-7.43441
yoH	-7.44184
ati	-7.44202
▁BagavAn	-7.44601
▁nir	-7.4504
▁tvam	-7.45535
▁rAjA	-7.46809
▁yadi	-7.47149
▁tasmAt	-7.47201
su	-7.48975
nAm	-7.49709
▁dfzwvA	-7.49735
▁varze	-7.50193
vA	-7.50481
▁rAja	-7.50918
▁anu	-7.52184
▁tame	-7.53255
iva	-7.5681
r	-7.57295
▁karma	-7.58642
vAn	-7.5961
aham	-7.60629
▁yadA	-7.61539
pra	-7.61801
▁idam	-7.62005
▁upa	-7.62307
▁Bavanti	-7.63548
yaH	-7.63587
▁tasmin	-7.64386
upa	-7.6505
▁ayam	-7.65245
▁rAjan	-7.6525
▁paYca	-7.66322
▁ataH	-7.66614
▁yatra	-7.6666
AnAM	-7.66919
▁tava	-7.67009
▁mayA	-7.67613
tam	-7.67708
▁ha	-7.68027
▁mAm	-7.68105
saM	-7.68161
taTA	-7.68229
▁mA	-7.68826
▁tri	-7.69211
▁sarvam	-7.70781
▁ni	-7.72161
eRa	-7.73416
asti	-7.7371
pi	-7.74089
▁asmin	-7.75245
▁param	-7.76093
aTa	-7.77479
arTam	-7.77665
▁eka	-7.78278
sa	-7.78392
▁bahu	-7.78826
anu	-7.7938
ra	-7.7938
▁tAm	-7.79889
▁aBi	-7.81512
tvAt	-7.83127
▁yAvat	-7.83679
kA	-7.85591
yam	-7.86011
ye	-7.86089
▁tezAm	-7.86366
an	-7.86456
▁namaH	-7.88288
Ra	-7.88672
▁vartate	-7.89688
rAja	-7.90267
nam	-7.90498
▁pUrva	-7.90852
▁tataH	-7.91353
▁kaTam	-7.92121
▁sapta	-7.92233
aBi	-7.92548
▁an	-7.93119
etat	-7.94009
k	-7.94823
la	-7.9551
ByaH	-7.95519
▁ati	-7.95741
▁yasya	-7.96999
ayaM	-7.97062
ja	-7.97914
▁Atma	-7.99763
atra	-7.99868
▁yA	-8.00021
va	-8.00259
▁go	-8.0055
▁kfta	-8.00896
yAM	-8.01159
yate	-8.01875
▁karoti	-8.02001
tvena	-8.02152
▁tAn	-8.02181
▁SrutvA	-8.02271
tayA	-8.03524
nAM	-8.0385
ke	-8.03996
yati	-8.04562
sam	-8.04767
▁daSa	-8.06893
▁BArata	-8.06996
▁manaH	-8.08073
▁kftam	-8.08174
▁rasa	-8.083
yet	-8.09322
▁veda	-8.09853
idam	-8.10345
▁iha	-8.10483
▁tasyAH	-8.10583
▁yena	-8.11553
ne	-8.11821
re	-8.11836
nI	-8.12291
▁kintu	-8.13866
▁para	-8.1409
Sas	-8.14225
▁sadA	-8.14597
▁kuryAt	-8.15503
▁kfzRa	-8.15868
▁abravIt	-8.15995
Sca	-8.16408
Aha	-8.17483
▁svayam	-8.17536
mahA	-8.18923
iha	-8.19098
yan	-8.19201
hi	-8.19723
▁guru	-8.20187
▁purA	-8.2329
kAH	-8.23765
si	-8.2392
▁tvayA	-8.25191
l	-8.2578
▁Asan	-8.25896
▁kAla	-8.26435
▁mahat	-8.26515
lA	-8.26581
RAm	-8.26759
▁parama	-8.27199
▁nityam	-8.2773
rA	-8.27748
▁ka	-8.27812
rUpeRa	-8.28994
ayam	-8.29907
AtmA	-8.30758
▁ezaH	-8.30801
▁kaH	-8.30912
▁idaM	-8.30979
▁kuru	-8.315
▁kA	-8.31843
▁loka	-8.31893
tas	-8.31974
▁sama	-8.32394
ava	-8.32424
▁guRa	-8.32496
▁sat	-8.32585
▁kAma	-8.3327
d	-8.33586
arTa	-8.34067
evam	-8.34641
▁janAH	-8.34641
▁dvi	-8.35203
▁nara	-8.35248
▁tapaH	-8.35514
tasya	-8.35717
uvAca	-8.36011
▁ava	-8.36024
▁anena	-8.36316
▁putra	-8.36409
▁ekaH	-8.36461
▁ity	-8.36481
tat	-8.36862
itaH	-8.38642
▁evaM	-8.39108
▁pUrvam	-8.39188
▁vidyate	-8.39198
▁janma	-8.39427
uktam	-8.39547
naH	-8.40075
▁tezu	-8.4009
▁akarot	-8.40242
yo	-8.40312
itam	-8.40362
▁Sata	-8.40431
▁tO	-8.40741
▁ucyate	-8.40833
▁Bavizyati	-8.40943
▁tAvat	-8.40949
▁eza	-8.41611
▁ete	-8.41757
rI	-8.4183
▁kAle	-8.42052
▁BAratasya	-8.42268
karma	-8.42281
yAt	-8.42308
▁adya	-8.42345
▁putraH	-8.4264
Ri	-8.43236
pari	-8.43238
eka	-8.43284
sva	-8.44043
▁nfpa	-8.44495
▁vAta	-8.44586
▁maDu	-8.44789
u	-8.45119
ikA	-8.45203
▁tvAm	-8.45299
yanti	-8.45588
S	-8.45656
▁dur	-8.45931
▁devAH	-8.46023
▁naH	-8.46054
▁puruza	-8.46136
da	-8.46446
▁dfSyate	-8.46858
▁mad	-8.47056
kAle	-8.47513
eByaH	-8.47559
▁maDye	-8.47752
▁ku	-8.47982
▁satya	-8.48096
indra	-8.48168
▁kiMcid	-8.48454
▁gatvA	-8.48497
▁jAyate	-8.48796
pa	-8.49071
▁viSva	-8.49241
▁rAma	-8.49262
▁vara	-8.49695
▁jala	-8.50741
yat	-8.51901
▁yoga	-8.51956
tva	-8.52065
yE	-8.52197
▁jagat	-8.52237
w	-8.5264
tena	-8.52667
▁loke	-8.52683
tatas	-8.53001
▁BavAn	-8.53047
ante	-8.53578
▁samyak	-8.53859
kft	-8.53944
Sa	-8.54158
▁Aha	-8.54404
RA	-8.55192
mA	-8.55201
Atma	-8.55286
ita	-8.55382
▁kfte	-8.55532
vatI	-8.55577
▁rakta	-8.55853
▁pitA	-8.56022
▁Siva	-8.56147
▁BU	-8.56293
▁parantu	-8.5655
▁pfTak	-8.57569
ve	-8.57627
kEH	-8.57665
▁yad	-8.57921
▁catur	-8.58417
ha	-8.58535
tAH	-8.58634
ri	-8.58671
se	-8.59145
▁sura	-8.59238
tI	-8.59411
asi	-8.59674
▁tEH	-8.59713
arTaH	-8.59792
▁AtmanaH	-8.59867
▁ityasya	-8.60041
▁sarvAn	-8.60058
▁dattvA	-8.60107
▁BagavataH	-8.60157
▁kftaH	-8.60222
ekam	-8.60302
▁asi	-8.60404
rasa	-8.60421
to	-8.60695
▁BUta	-8.60722
AsIt	-8.60733
Pala	-8.60938
▁nava	-8.61141
tatra	-8.61221
tO	-8.61388
▁suKa	-8.61607
DA	-8.6208
▁prA	-8.6267
▁vayam	-8.62982
p	-8.63333
▁atas	-8.63462
agni	-8.63604
▁kAryam	-8.63626
▁kurvanti	-8.63649
ayet	-8.6369
guRa	-8.638
▁s	-8.64073
AdayaH	-8.64087
▁DarmaH	-8.64627
▁Kalu	-8.64879
▁ezA	-8.65101
▁prApya	-8.65138
et	-8.65193
tri	-8.65293
▁jAtaH	-8.65501
▁jYAna	-8.6557
▁nAnA	-8.65859
jA	-8.65962
▁ud	-8.66081
▁kftavAn	-8.66234
▁san	-8.66329
hA	-8.66547
y	-8.66687
vid	-8.66911
▁puruzaH	-8.67088
▁svasya	-8.67187
▁asO	-8.67236
▁Pala	-8.67409
▁strI	-8.67505
lI	-8.67656
tAn	-8.6774
▁ced	-8.67919
▁gataH	-8.68136
▁vinA	-8.68527
ARAm	-8.68721
▁laGu	-8.69231
▁vAkyam	-8.69462
sA	-8.69539
▁tAni	-8.70213
▁punaH	-8.70252
E	-8.70366
▁vizaye	-8.70618
tad	-8.70722
h	-8.70903
itAH	-8.71089
▁sahasra	-8.71474
▁BUtvA	-8.71619
nir	-8.71784
▁sTitam	-8.72011
▁antar	-8.72589
▁tezAM	-8.72699
▁asmi	-8.72699
▁tayoH	-8.728
Yca	-8.73048
tadA	-8.73255
▁bala	-8.73304
▁Barata	-8.73607
jam	-8.74103
rUpa	-8.74496
▁raRe	-8.74564
nti	-8.74712
▁mahAn	-8.75553
▁Sara	-8.75779
▁pAda	-8.75982
iyam	-8.76014
▁vacaH	-8.76056
AdiBiH	-8.76102
deva	-8.7627
maDye	-8.76395
z	-8.76417
ga	-8.77585
▁paScAt	-8.77801
▁vidyA	-8.77876
▁satyam	-8.78134
▁vacanam	-8.78145
Darma	-8.78166
▁rUpam	-8.78189
bala	-8.78421
asO	-8.78476
▁hari	-8.78588
▁aBUt	-8.78832
g	-8.79072
▁aTavA	-8.79104
▁AtmA	-8.79481
Palam	-8.79623
ud	-8.79831
RI	-8.79862
▁BAratIya	-8.79995
▁Bava	-8.80105
vI	-8.8013
▁rAjYaH	-8.80132
▁sADu	-8.80364
RAM	-8.80424
▁puRya	-8.80427
anti	-8.80672
▁Palam	-8.80918
▁kula	-8.80969
▁tAH	-8.81192
▁tayA	-8.81365
▁yatas	-8.81508
tEH	-8.81618
eza	-8.81775
▁hema	-8.81849
qa	-8.81891
dA	-8.81962
AM	-8.82184
▁tasmE	-8.82242
le	-8.82284
nu	-8.82326
▁kaPa	-8.82327
▁saMSayaH	-8.82909
▁sTitaH	-8.83148
▁agni	-8.83436
Nga	-8.8357
▁vaH	-8.83585
ram	-8.83595
▁dvAdaSa	-8.83645
ARi	-8.83809
itA	-8.83877
▁vIra	-8.83948
▁priya	-8.84083
▁maRqalasya	-8.84272
jana	-8.84655
▁samA	-8.84797
tvaM	-8.85236
▁suKam	-8.85522
▁vy	-8.85784
▁etasya	-8.85806
▁parA	-8.85861
kAn	-8.85872
▁brahmA	-8.86035
ayA	-8.86036
▁dadyAt	-8.86104
enam	-8.86158
q	-8.86159
inaH	-8.86159
▁nA	-8.86212
▁raTa	-8.86256
▁kaScid	-8.86417
▁nAmnA	-8.8644
▁arTa	-8.86659
iH	-8.8671
▁vajra	-8.86966
▁yuDizWiraH	-8.87036
▁tarhi	-8.87069
Ram	-8.87155
▁ityAdi	-8.87158
paryantaM	-8.87425
▁yam	-8.87498
pA	-8.87664
yante	-8.87948
▁AtmAnam	-8.87986
▁kriyA	-8.88745
▁sarvezAm	-8.88848
▁sati	-8.89044
ro	-8.89094
▁kArya	-8.89116
▁praTama	-8.89242
▁jana	-8.89338
▁BUyas	-8.89608
ucyate	-8.89626
AByAm	-8.90315
▁balam	-8.9037
▁cet	-8.90421
antar	-8.90508
▁mAyA	-8.9076
▁apa	-8.91086
▁vipra	-8.91218
▁kftA	-8.91314
▁vana	-8.91428
▁pitta	-8.91517
▁ja	-8.91619
▁rAmaH	-8.91718
▁kartum	-8.91884
▁nAga	-8.91966
▁devaH	-8.92161
▁praty	-8.92164
▁asyAH	-8.92311
vizaye	-8.92476
kI	-8.92495
Re	-8.92527
▁sarvatra	-8.9263
▁yajYa	-8.92636
▁mat	-8.92716
j	-8.9272
▁muni	-8.9295
rUpam	-8.93011
▁naraH	-8.93052
▁anya	-8.93069
▁prARa	-8.93155
▁Sakyate	-8.93344
▁rUpa	-8.9388
▁varzasya	-8.93995
BUta	-8.9436
ARAM	-8.94461
▁samam	-8.94511
kasya	-8.94547
▁kaTA	-8.94599
▁sUrya	-8.94714
Ami	-8.95209
▁devI	-8.95309
▁pitf	-8.95682
▁viza	-8.95808
ArTaM	-8.95912
aNga	-8.95924
▁kartuM	-8.95951
ko	-8.96006
kAla	-8.96173
jit	-8.96314
vantaH	-8.9636
▁pApa	-8.96383
▁SfRu	-8.96447
yaM	-8.96533
Im	-8.96723
▁mUla	-8.96879
▁SarEH	-8.97038
▁jIva	-8.97117
▁mAtA	-8.97202
▁taTApi	-8.97434
yena	-8.97463
▁prajA	-8.97483
▁mantra	-8.97532
doza	-8.97857
▁nAsti	-8.97886
▁varza	-8.98017
ByAm	-8.98073
▁kaScana	-8.9824
maRqalam	-8.9826
antam	-8.98318
tve	-8.98772
▁ke	-8.98778
▁candra	-8.99051
▁uttara	-8.99158
kara	-8.99246
yO	-8.99281
atas	-8.99481
▁ma	-8.99566
▁niz	-8.99629
D	-9.00018
▁ahaM	-9.00044
▁bahavaH	-9.00082
▁vya	-9.00457
yAn	-9.00613
▁varRa	-9.00616
naM	-9.00663
v	-9.00735
ru	-9.0076
▁nu	-9.00887
▁va	-9.01156
gatam	-9.01276
▁Bagavan	-9.01482
▁SilA	-9.01542
nte	-9.0155
▁rasaH	-9.0157
▁jYAtvA	-9.01571
Bi	-9.01729
anena	-9.01809
▁smftaH	-9.02175
▁sarvAH	-9.02204
▁citra	-9.0221
fzaBa	-9.02451
▁sUtaH	-9.02475
ba	-9.0253
▁manasA	-9.02589
▁dinANke	-9.02592
vE	-9.0271
▁ut	-9.02949
anta	-9.0302
▁kAlaH	-9.03037
▁dvija	-9.03119
mAn	-9.03139
pAda	-9.03161
▁baBUva	-9.03411
dam	-9.03528
▁pituH	-9.03602
▁mayi	-9.0361
Iya	-9.03728
▁pARqu	-9.03744
vara	-9.03848
li	-9.03852
wa	-9.03918
▁divya	-9.044
▁dve	-9.04498
uktvA	-9.04631
anantaraM	-9.0492
▁ganDa	-9.04952
▁padma	-9.05054
▁deha	-9.05106
▁taM	-9.0527
▁kecid	-9.05347
▁tAta	-9.05909
▁ko	-9.06063
▁dakziRa	-9.06297
di	-9.06426
▁nitya	-9.06556
▁kalA	-9.06702
go	-9.06714
▁bAla	-9.06789
nAt	-9.06833
putraH	-9.07123
mAtram	-9.073
▁yasmAt	-9.07324
▁samare	-9.0736
adya	-9.07405
▁jaya	-9.07434
kftam	-9.0747
▁sattva	-9.07552
▁SarIra	-9.0761
▁om	-9.07632
uH	-9.07703
▁yAti	-9.07783
Sata	-9.07844
▁duHKa	-9.07925
kAra	-9.08005
▁dvO	-9.08126
pitta	-9.08306
▁aDi	-9.08565
jaH	-9.08646
▁BArate	-9.08791
▁tvad	-9.0888
Adizu	-9.0896
▁sAkzAt	-9.08976
▁indra	-9.09167
▁DanuH	-9.09275
sTaH	-9.09311
loka	-9.09321
▁jYAnam	-9.09337
karaH	-9.09478
▁kriyate	-9.09639
nAma	-9.09807
▁giri	-9.09844
tava	-9.09986
▁SiraH	-9.10019
varRa	-9.10229
mUla	-9.1026
▁ba	-9.10616
▁puzpa	-9.10654
▁prajAH	-9.10848
▁kanyA	-9.1096
BAva	-9.10978
karam	-9.11111
AdInAm	-9.11241
▁pu	-9.11281
▁sarvARi	-9.11497
▁manyate	-9.11806
▁Darmam	-9.11897
▁dIrGa	-9.11957
▁paramam	-9.12024
jYaH	-9.12134
▁upari	-9.12526
dvayam	-9.12533
sama	-9.12538
▁sidDa	-9.1267
▁kAryaM	-9.12674
▁sahasA	-9.12689
▁BavataH	-9.12748
▁deSa	-9.12969
▁Sabda	-9.13022
daH	-9.13204
balaH	-9.13279
maRqalasya	-9.13507
▁dUre	-9.13601
▁soma	-9.13784
▁kila	-9.14058
RaH	-9.14135
▁mfga	-9.14356
▁kevalaM	-9.14714
▁BIzmaH	-9.14727
ataH	-9.14795
▁varam	-9.14864
▁ekA	-9.14892
G	-9.14908
▁BfSam	-9.14984
▁pibet	-9.15069
▁dinam	-9.15272
▁SudDa	-9.15273
▁anye	-9.15493
▁uktvA	-9.15527
stu	-9.15604
▁uktam	-9.15635
trayam	-9.15657
AtmAnam	-9.15692
Ba	-9.15719
▁Dana	-9.15742
anye	-9.15768
▁prAptavAn	-9.15857
▁vAc	-9.15862
vidyA	-9.16022
apa	-9.16134
▁kaTyate	-9.16181
▁kva	-9.16215
lam	-9.16331
ite	-9.16545
▁kurvan	-9.17426
▁rAjyam	-9.17513
uktaH	-9.17606
▁anyat	-9.17762
▁kAraRam	-9.17853
gA	-9.1786
aBavat	-9.18007
kaM	-9.18541
yEH	-9.18595
kz	-9.18691
▁taTEva	-9.18772
▁paSya	-9.18929
▁vAyuH	-9.18945
inI	-9.19039
▁brAhmaRaH	-9.19102
AdO	-9.19116
▁kvacid	-9.19154
▁gacCati	-9.19247
▁uktaH	-9.19292
▁diSaH	-9.19311
sTam	-9.19339
saH	-9.19346
abravIt	-9.19358
patiH	-9.19434
tra	-9.19452
Ta	-9.19462
yitvA	-9.195
▁padam	-9.19503
kena	-9.19518
rAjaH	-9.19977
▁zaz	-9.19995
▁budDiH	-9.20105
prati	-9.20211
▁rAjYA	-9.20248
vAta	-9.20295
▁ekam	-9.20314
▁kena	-9.20453
▁pfTivI	-9.20606
kfta	-9.2064
▁ityAKy	-9.20696
ut	-9.20778
▁karRa	-9.20847
▁jagAma	-9.20856
▁Sakti	-9.21137
▁sutaH	-9.21152
c	-9.2119
upari	-9.21192
pura	-9.21346
▁guruH	-9.21593
ete	-9.21663
▁agniH	-9.21704
▁tapasA	-9.22146
mat	-9.22168
▁praBuH	-9.22425
▁sTAnam	-9.2246
▁kara	-9.22631
▁rAjya	-9.22698
▁nadI	-9.22827
arTe	-9.22948
▁dadarSa	-9.22948
gaRa	-9.23009
nagare	-9.23107
▁gatim	-9.23107
▁azwa	-9.23179
▁vizRu	-9.23181
▁vadanti	-9.23318
ika	-9.23498
tAyAH	-9.23506
▁astu	-9.23707
▁kiM	-9.23764
maRqale	-9.23834
syA	-9.23899
▁aNga	-9.23972
gam	-9.24066
Di	-9.24069
▁BIma	-9.24096
kriyA	-9.24269
AtmanaH	-9.24333
▁vanam	-9.24354
▁yasmin	-9.2436
▁BAva	-9.24484
▁gaja	-9.24523
BAzA	-9.24719
▁aBy	-9.24755
▁doza	-9.24772
▁gaNgA	-9.24782
▁tejaH	-9.24943
▁Soka	-9.24969
▁u	-9.25066
sarva	-9.25093
▁prApyate	-9.25167
▁mahAtmanaH	-9.25193
▁yudDe	-9.25481
▁ra	-9.25696
raH	-9.25927
▁hariH	-9.26164
▁putram	-9.26252
pat	-9.26293
▁Bayam	-9.26366
▁tyaktvA	-9.2645
▁si	-9.26614
oH	-9.26652
U	-9.267
▁muniH	-9.26816
▁rudra	-9.2686
▁BUmO	-9.2688
▁I	-9.26888
▁brAhmaRa	-9.27125
antaH	-9.27332
▁atIva	-9.27376
▁tamaH	-9.27506
kAraH	-9.2767
▁yataH	-9.27886
je	-9.27972
▁yayO	-9.28117
▁loha	-9.28186
▁jA	-9.28322
▁alpa	-9.28359
▁sneha	-9.28439
▁Adi	-9.28509
b	-9.29411
▁devi	-9.29557
▁syuH	-9.29622
▁tvA	-9.29623
ayan	-9.29745
yata	-9.29757
opi	-9.29812
▁Sveta	-9.29909
▁pacet	-9.29951
▁zoqaSa	-9.29961
san	-9.30464
▁vatsa	-9.3054
zA	-9.30545
▁gfha	-9.30548
zi	-9.3055
▁sarvadA	-9.30631
maRqalaM	-9.30634
Ad	-9.3066
▁muKya	-9.30669
▁duHKam	-9.30809
▁karmaRA	-9.30867
yogena	-9.30905
uttamam	-9.30976
▁Sa	-9.31019
▁svAhA	-9.31026
mAtra	-9.3104
raTaH	-9.31289
padam	-9.31446
anyat	-9.31538
▁arTAt	-9.31809
▁Buvi	-9.32005
rEH	-9.32287
▁hata	-9.32299
▁budDi	-9.3245
yu	-9.32567
▁ityAdayaH	-9.32592
▁vESaMpAyanaH	-9.32667
deSe	-9.32721
▁samIpe	-9.32746
▁kurute	-9.32789
SA	-9.32803
▁paSyati	-9.33241
yoga	-9.33301
▁patiH	-9.33508
▁satatam	-9.33553
▁uttamam	-9.33592
▁zaw	-9.33645
▁pada	-9.33669
arka	-9.33714
▁gfhe	-9.33751
▁vAyu	-9.33776
▁UcuH	-9.33865
▁tizWati	-9.33901
▁uta	-9.33944
▁svarRa	-9.33986
azwa	-9.34069
tyA	-9.3409
▁karmARi	-9.34268
▁gatiH	-9.34275
qi	-9.34288
▁cA	-9.34397
▁aBavan	-9.34431
▁trayaH	-9.3444
▁yAni	-9.34453
▁sarvEH	-9.34502
▁mahI	-9.34532
▁hA	-9.34811
kzetre	-9.34825
▁sarvezu	-9.34955
▁rAjye	-9.35001
▁dine	-9.3501
Sakti	-9.35115
▁sArDam	-9.35149
▁dfQa	-9.35176
▁manasi	-9.35242
▁vizRuH	-9.35291
yatAm	-9.35336
ASu	-9.35466
▁kriSa	-9.35561
▁siMha	-9.35588
▁rajaH	-9.35774
▁rAjAnam	-9.35808
mAna	-9.35858
nadI	-9.35859
▁maRqalam	-9.35902
▁yama	-9.35971
sAra	-9.36041
aSva	-9.36063
▁prAha	-9.36104
jYAna	-9.36119
loke	-9.36173
vaH	-9.36294
▁avi	-9.36405
▁fzayaH	-9.36422
iyaM	-9.3658
▁vane	-9.36591
▁bfhat	-9.36599
▁da	-9.36695
▁striyaH	-9.36808
▁divyam	-9.36816
▁SukaH	-9.36877
yaTA	-9.37011
rO	-9.37075
▁krudDaH	-9.37232
anam	-9.37488
▁arhasi	-9.37559
bAhuH	-9.37572
▁yudDam	-9.376
▁upA	-9.3765
za	-9.37754
▁devatA	-9.37761
▁maRi	-9.37835
▁kfzRaH	-9.37879
▁paraH	-9.37969
roga	-9.37972
▁jAtA	-9.38026
▁vastu	-9.38047
▁prAk	-9.38056
▁hasta	-9.38095
▁vyA	-9.38173
▁SIta	-9.38459
pada	-9.38492
▁kzIra	-9.3852
kAmaH	-9.38576
▁mahatA	-9.38647
SaH	-9.38791
sI	-9.38803
▁BAryA	-9.38809
tale	-9.38858
mandiraM	-9.38969
▁praBo	-9.39068
▁rAkzasa	-9.39078
▁mardayet	-9.39078
▁muKa	-9.39112
▁tamasya	-9.39164
▁iyam	-9.39292
▁devAnAm	-9.39345
sTAnam	-9.39482
▁kArayet	-9.39493
P	-9.39818
▁Druvam	-9.39872
▁prApnoti	-9.399
itum	-9.39912
▁BAzA	-9.40013
dvaya	-9.4004
▁viSezataH	-9.40048
nagaraM	-9.40097
▁dina	-9.40125
▁tattva	-9.4022
▁hanti	-9.40248
antara	-9.4035
▁snAtvA	-9.40351
▁atyanta	-9.40406
▁gata	-9.40432
▁devam	-9.40462
varza	-9.4048
ityAdi	-9.40583
tAM	-9.40621
jI	-9.40627
▁manda	-9.40743
kO	-9.40749
▁SaNKa	-9.40773
vya	-9.40805
jala	-9.40806
pe	-9.4081
▁vizam	-9.40886
kula	-9.40906
▁mfdu	-9.40946
cUrRam	-9.40966
ku	-9.41005
▁prAptaH	-9.4113
Gnam	-9.41224
▁gfhItvA	-9.41248
cit	-9.41436
▁BagavatA	-9.4161
smin	-9.41621
▁daRqa	-9.41746
▁sUta	-9.4175
R	-9.41763
▁svarga	-9.41865
van	-9.41923
▁he	-9.42066
akaH	-9.42068
▁brahmaRaH	-9.42132
no	-9.42238
▁Baya	-9.42435
▁zaq	-9.42517
▁pa	-9.42563
opa	-9.42641
▁putrAH	-9.42879
balam	-9.42882
▁pUrRa	-9.43111
muKa	-9.43298
▁etena	-9.43358
▁aneka	-9.43373
▁kAvya	-9.43381
janAnAM	-9.43567
kalA	-9.43628
Uru	-9.4369
tvA	-9.4371
dfzwyA	-9.4371
▁hfdi	-9.43724
gataH	-9.43739
ayoH	-9.43772
▁kzipram	-9.44
▁BUtAni	-9.44113
sti	-9.44152
▁tadvat	-9.44213
▁lokAn	-9.44255
▁suvarRa	-9.44331
▁hatvA	-9.44344
mAnaH	-9.44371
▁hitam	-9.44416
jAH	-9.44511
deSa	-9.44631
puzpa	-9.44689
▁jAtam	-9.4474
▁kiYcana	-9.44745
▁arTaH	-9.44845
▁mahAtmanA	-9.44899
▁mokza	-9.44909
▁viSeza	-9.45028
▁pUrvavat	-9.45039
▁jita	-9.45068
▁Bagavat	-9.45151
▁BaktyA	-9.45186
yi	-9.45257
▁cakre	-9.45463
ambu	-9.45592
▁prakfti	-9.45609
▁BUtAnAm	-9.45648
▁jYAyate	-9.45725
taram	-9.45757
▁ISvaraH	-9.45792
ukta	-9.45802
▁brahman	-9.45802
arDa	-9.45819
▁pArTa	-9.45825
▁kaTayati	-9.45857
mAnam	-9.45862
▁agre	-9.45954
▁ki	-9.45993
yeta	-9.46111
▁gaRa	-9.46119
BU	-9.4615
▁raTam	-9.46152
reRa	-9.46187
▁AdAya	-9.46215
f	-9.46306
▁nagare	-9.46355
▁tvayi	-9.4657
▁varaH	-9.46601
maDya	-9.4662
▁Basma	-9.46661
▁mu	-9.46739
yAmi	-9.46755
▁aDika	-9.46768
ate	-9.46783
▁viduH	-9.46825
▁indraH	-9.46831
▁imam	-9.4685
▁krameRa	-9.46871
▁aho	-9.46941
▁BAga	-9.46957
pati	-9.47057
▁yudDa	-9.47098
▁nagaram	-9.47101
yuktaH	-9.47331
sTAnaM	-9.47399
▁pApam	-9.47449
yAmAsa	-9.47588
▁pA	-9.47688
yuktam	-9.47741
▁kasya	-9.47778
▁kAlena	-9.47797
samaye	-9.47926
▁fzi	-9.4796
▁SAstra	-9.48013
tara	-9.48189
▁muhur	-9.48265
para	-9.48319
pradeSe	-9.48322
▁yuktaH	-9.48341
▁cakAra	-9.48398
▁gacCa	-9.4841
mayam	-9.4865
▁anyaH	-9.48715
N	-9.48726
SAstra	-9.48728
▁laBate	-9.48783
tamaH	-9.49022
▁Danam	-9.49043
antare	-9.49081
▁kawu	-9.49115
▁Satam	-9.49146
▁maDya	-9.49153
▁prAptam	-9.49175
▁SuBa	-9.49247
▁pit	-9.49257
▁racanA	-9.4931
tejAH	-9.49328
▁ratna	-9.49333
nena	-9.49348
▁tAmra	-9.49352
▁dvitIya	-9.49381
▁rAtrO	-9.49492
sarvatas	-9.49553
Sam	-9.49591
▁samaye	-9.496
AdIni	-9.49603
▁kroDa	-9.49611
▁etad	-9.49736
▁imAm	-9.49759
▁kevalam	-9.49781
▁pumAn	-9.49807
antaram	-9.49877
pUrva	-9.49891
tattva	-9.49898
▁amfta	-9.50004
wA	-9.50104
ezA	-9.5032
zw	-9.50353
▁vidvAn	-9.50395
▁kar	-9.50397
rasaH	-9.50416
▁kutas	-9.5059
▁sItA	-9.50652
patra	-9.50672
eti	-9.5077
SrezWa	-9.50803
▁kopi	-9.50812
lakzaRam	-9.50847
▁saMskfta	-9.5087
aBUt	-9.50907
▁patnI	-9.50975
ezAm	-9.50986
kar	-9.50997
Si	-9.51018
AhuH	-9.51076
▁ante	-9.51092
▁avadat	-9.51186
nEH	-9.51206
▁pIta	-9.51238
▁tIrTa	-9.5126
lo	-9.51265
▁sadyas	-9.51265
▁anyaTA	-9.51276
cakra	-9.51313
▁kalpa	-9.51321
▁yaSaH	-9.51475
manAH	-9.51532
▁BUmi	-9.51695
mayaH	-9.51704
sattama	-9.51741
rUpaH	-9.51821
alpa	-9.51833
▁pARqavAH	-9.51845
▁AhuH	-9.51851
kAlam	-9.51908
▁prasidDaH	-9.5202
▁bahUni	-9.52157
Er	-9.52162
▁mfd	-9.52174
putra	-9.52174
aDas	-9.52236
nAya	-9.52371
▁viviDa	-9.52427
sat	-9.52552
▁up	-9.52562
ayati	-9.52603
sTA	-9.52708
lu	-9.52901
▁Gfta	-9.5293
▁sattvam	-9.5297
pApa	-9.53091
▁kadAcid	-9.5314
▁kowi	-9.5323
▁kendram	-9.53257
SrutvA	-9.53273
▁dfSyante	-9.53275
▁nagarasya	-9.53342
kAma	-9.53714
▁nija	-9.53719
▁priyam	-9.53763
▁kecana	-9.53775
▁yuktam	-9.53914
▁yato	-9.54369
uttara	-9.5438
▁vizRoH	-9.54501
▁kartavyam	-9.54536
▁brUhi	-9.54539
▁yuDi	-9.54675
▁Satru	-9.54676
▁ityanena	-9.5471
▁kasmAt	-9.54933
▁guRAH	-9.55069
▁dravya	-9.5507
▁deSasya	-9.55095
astu	-9.551
aDi	-9.55155
dvArA	-9.55245
sahasrARi	-9.55343
▁arhati	-9.5536
vana	-9.55387
▁nIla	-9.55388
▁devAn	-9.55559
▁Bakti	-9.55587
kfte	-9.55792
SilA	-9.55801
sahasra	-9.55999
ki	-9.56011
annam	-9.56058
▁vizaya	-9.5608
ratna	-9.56088
jYa	-9.56444
▁paraM	-9.56468
devI	-9.56485
viza	-9.56495
dur	-9.56642
candra	-9.56653
▁antaH	-9.56882
▁arjunaH	-9.56898
rakta	-9.56904
▁uttama	-9.56907
▁tasyAm	-9.56939
▁smftam	-9.5705
ar	-9.57055
nAni	-9.57123
indriya	-9.57158
▁nagaraM	-9.57217
▁garBa	-9.57226
nagarasya	-9.57352
▁krIqA	-9.57393
▁kfzRA	-9.57508
▁puruzam	-9.57625
gata	-9.57684
▁kramAt	-9.57723
AKyA	-9.57723
▁indriya	-9.58039
▁matiH	-9.58041
BAga	-9.58116
▁SlokaH	-9.58121
▁samantataH	-9.58193
▁nUnam	-9.58193
janAH	-9.5823
itavAn	-9.58297
tAni	-9.58355
vy	-9.58439
rAjyasya	-9.5848
▁vAma	-9.58498
Beda	-9.58523
▁Atmani	-9.58525
▁puRyam	-9.58537
▁sUkzma	-9.58898
asmi	-9.58941
▁anna	-9.58951
man	-9.59088
▁yuDizWira	-9.59099
rasam	-9.59175
bA	-9.59345
qA	-9.59416
maDu	-9.59416
▁pfzWa	-9.59417
▁kzipet	-9.59583
lokam	-9.5959
Satam	-9.59644
▁etAni	-9.59712
▁nfpaH	-9.59719
BA	-9.59739
sTa	-9.59785
▁mftyuH	-9.5979
Da	-9.59835
▁staH	-9.59979
dinam	-9.60025
▁icCAmi	-9.60216
▁vadati	-9.60327
▁enam	-9.6033
gaH	-9.60334
▁pramuKa	-9.60442
▁proktam	-9.60452
▁gacCet	-9.6048
kaTA	-9.6056
▁SIGram	-9.60624
ayitvA	-9.60645
rAjasya	-9.60694
▁jAta	-9.6081
anna	-9.60859
▁manye	-9.60968
▁karRaH	-9.60976
var	-9.6098
amla	-9.61028
cC	-9.61038
▁paSu	-9.61126
▁sO	-9.61138
itEH	-9.61173
veda	-9.61223
▁vIrya	-9.61273
trA	-9.61303
darSana	-9.61314
mAlA	-9.61331
▁pate	-9.6151
▁pr	-9.61554
▁Sakra	-9.61646
▁pUjA	-9.61745
yAni	-9.61872
▁viDi	-9.61957
▁gacCanti	-9.6211
▁sTita	-9.62163
▁sTAne	-9.62308
▁ananta	-9.6236
▁rAjyasya	-9.62425
▁ata	-9.62505
anya	-9.62573
kftaH	-9.62625
▁viDinA	-9.62653
▁patim	-9.62677
pUrvam	-9.62718
▁nAradaH	-9.62754
kArya	-9.6291
▁mAtrA	-9.62918
▁Binna	-9.62999
▁hataH	-9.63011
eta	-9.63099
nO	-9.63108
▁hareH	-9.63112
▁BImaH	-9.63155
yuH	-9.63185
▁kaccit	-9.63234
Ar	-9.63422
▁svam	-9.63445
▁yAnti	-9.63475
indraH	-9.6348
rUpA	-9.63532
▁gfham	-9.63555
rAn	-9.63712
▁prAcIna	-9.63783
mUtra	-9.63797
▁maDura	-9.63852
▁UrDva	-9.63986
▁teByaH	-9.64082
BAvaH	-9.64118
▁yadyapi	-9.64221
▁prApta	-9.64258
▁muKam	-9.64279
▁dEtya	-9.64337
rAj	-9.64341
▁dadO	-9.6441
jYA	-9.64412
▁mAna	-9.64433
▁so	-9.64438
▁jalam	-9.64506
▁kAraRena	-9.64538
▁AsAdya	-9.64549
▁darSana	-9.6467
▁vIraH	-9.64686
▁vyAKyA	-9.64698
sTAne	-9.64781
De	-9.64807
▁matam	-9.64814
aMSa	-9.64864
▁ekadA	-9.64882
wi	-9.64902
Atmakam	-9.64951
BAge	-9.64992
▁UrDvam	-9.65015
▁mada	-9.65137
▁deSe	-9.65244
▁maRqale	-9.65249
Ka	-9.65301
▁dakziRe	-9.65339
dvi	-9.65347
AdyEH	-9.65487
▁SarIram	-9.65528
mahat	-9.65542
Pa	-9.65641
ci	-9.65766
▁kAmam	-9.65832
▁lokam	-9.65857
uzRa	-9.65864
▁SanEs	-9.65927
▁cakra	-9.65941
wI	-9.65975
▁nfRAm	-9.66091
▁SuBam	-9.66162
▁arDa	-9.66187
AdIn	-9.66204
aBy	-9.66233
▁kAlam	-9.66243
viSeza	-9.66244
▁prasidDam	-9.66349
mantra	-9.66536
▁sAma	-9.66581
▁janaH	-9.6684
Adikam	-9.66937
▁SabdaH	-9.66952
▁vAcA	-9.67057
▁Srutam	-9.67069
sutaH	-9.67101
bAho	-9.67127
▁rA	-9.67144
▁ta	-9.67153
KaRqe	-9.67247
▁mAtuH	-9.67287
▁parasparam	-9.67294
▁anyatra	-9.67317
▁SradDA	-9.67341
▁pArTiva	-9.67341
▁SaraRam	-9.67421
▁DAtu	-9.67422
▁kfzRam	-9.67476
AdyAH	-9.67503
▁brAhmaRAH	-9.67523
▁SivaH	-9.67559
▁mAtf	-9.67574
guru	-9.67579
vftti	-9.67629
▁saNgIta	-9.67642
▁gadA	-9.67697
jEH	-9.6777
lakzaRa	-9.67875
▁mfta	-9.67879
▁bahis	-9.67885
▁bi	-9.67953
brahma	-9.68015
▁aDyAyaH	-9.68126
▁labDa	-9.68133
ekaH	-9.68137
nagaram	-9.68272
▁hfdaya	-9.68324
prA	-9.68571
▁pUrvaM	-9.68592
ge	-9.68725
devaH	-9.6874
▁sTitA	-9.68772
liNga	-9.68828
▁la	-9.6883
rAma	-9.68844
▁prARAn	-9.6894
▁mitra	-9.69
▁senA	-9.69064
darSanam	-9.69127
▁viSAm	-9.69348
▁dakziRA	-9.6936
▁paraspara	-9.69418
▁tejasA	-9.69433
▁svayaM	-9.69477
pya	-9.69658
▁vidyAt	-9.69715
▁dadAti	-9.6973
▁duryoDanaH	-9.6975
▁k	-9.69772
▁munayaH	-9.69789
ISvaraH	-9.69794
▁sevA	-9.69853
▁vasu	-9.69858
Basma	-9.69881
▁kaTaM	-9.6992
citra	-9.69933
▁ityAdIn	-9.69972
▁tan	-9.7001
▁etasmin	-9.70042
DaraH	-9.70051
▁annam	-9.70091
▁varzARi	-9.70128
uta	-9.70253
▁prakASa	-9.7035
▁rasam	-9.70368
Rq	-9.70461
▁karRAwaka	-9.7055
▁kimI	-9.70589
kAt	-9.70616
▁meGa	-9.70696
ji	-9.70746
▁ga	-9.70769
jvara	-9.70822
aka	-9.70837
▁gatAH	-9.70839
catur	-9.70872
vyA	-9.70881
▁triBiH	-9.70918
kAm	-9.70986
▁kala	-9.71056
puram	-9.71094
▁BavatA	-9.71138
de	-9.71171
▁praDAna	-9.71208
▁pi	-9.7123
ane	-9.71321
sU	-9.71354
gar	-9.71382
▁praviSya	-9.71467
hitam	-9.71509
▁yezAm	-9.71539
▁nArAyaRa	-9.71567
▁fziH	-9.71656
▁guREH	-9.71661
▁sTUla	-9.71831
▁dvijaH	-9.71928
▁narmadA	-9.71944
mUlam	-9.7196
▁samudra	-9.71983
▁dEva	-9.72024
BUtam	-9.72028
yI	-9.72048
▁sarvaTA	-9.7211
▁etezA	-9.7225
raTa	-9.72334
Ng	-9.72358
▁asat	-9.72536
▁tila	-9.72548
ayaH	-9.72559
▁Goram	-9.72593
um	-9.72606
Bavat	-9.72659
cA	-9.72671
asTi	-9.72833
▁prAtar	-9.72875
pAla	-9.73041
▁paSyAmi	-9.73068
▁mukta	-9.73075
▁anyatamam	-9.73133
▁SreyaH	-9.73183
▁kziptvA	-9.73223
▁hasti	-9.73248
AnantaraM	-9.73365
▁vihAya	-9.7337
▁payaH	-9.73407
▁mAMsa	-9.73482
▁dUra	-9.73489
▁nyAya	-9.73512
▁tIkzRa	-9.73552
mu	-9.73589
▁saN	-9.73629
▁Gawa	-9.7368
uttama	-9.73719
hetu	-9.73832
nta	-9.73946
▁pura	-9.74006
tya	-9.74049
nAmaka	-9.7405
▁dA	-9.741
▁ganDarva	-9.74107
yogasya	-9.74135
▁jale	-9.74162
agre	-9.74194
agniH	-9.74294
▁BagavadgItAyA	-9.74329
▁Sruta	-9.74343
▁raRa	-9.74347
nud	-9.74362
▁dattam	-9.74467
▁hfdayam	-9.7458
DI	-9.74636
mAtreRa	-9.74641
▁AgataH	-9.74656
samA	-9.74684
hita	-9.74684
laH	-9.74693
▁rAmasya	-9.74713
▁viSAla	-9.74768
▁kAryA	-9.74795
jYAnam	-9.74839
▁kiYcit	-9.74955
▁mI	-9.74981
nAga	-9.75023
▁rAjaDAnI	-9.75084
Ala	-9.75188
vad	-9.75224
▁yuga	-9.75297
mArga	-9.75324
AdAya	-9.75385
muKam	-9.75465
osti	-9.75468
vAc	-9.75491
▁nE	-9.75522
▁cakzuH	-9.75582
yutam	-9.75654
▁lokAH	-9.75705
pu	-9.75725
samam	-9.75793
▁aja	-9.75817
deS	-9.75945
▁drazwum	-9.76088
▁viDivat	-9.7611
vanam	-9.76192
haram	-9.76237
▁satI	-9.76295
▁bA	-9.76369
agra	-9.76472
jAn	-9.76543
▁vaktum	-9.76649
B	-9.76659
▁kendra	-9.7684
▁pravartate	-9.76886
yasya	-9.77169
▁sarvezAM	-9.77172
▁SrImAn	-9.77238
zwA	-9.77367
▁SarIre	-9.77394
▁prajYA	-9.77398
▁aDunA	-9.77431
iz	-9.77568
paryantam	-9.7757
giri	-9.77647
▁saMjayaH	-9.77671
▁Ba	-9.77696
kaPa	-9.77708
qI	-9.77734
yezu	-9.77742
▁sUryaH	-9.77819
▁citta	-9.7787
▁sUtam	-9.7791
▁rAmam	-9.77955
saMKyA	-9.7796
▁trizu	-9.77987
▁droRaH	-9.78021
▁nanu	-9.78034
▁vastra	-9.7811
dAha	-9.78117
▁AyuH	-9.78218
aMSam	-9.78238
▁gate	-9.78265
AKyam	-9.78301
▁lakzaRam	-9.78329
ganDa	-9.78348
▁pUjayet	-9.78427
▁catvAraH	-9.78462
▁SuciH	-9.7848
▁tAra	-9.78522
Ananda	-9.78553
▁vftti	-9.78616
▁sAmAnya	-9.78675
deSasya	-9.78759
ana	-9.78781
▁kartA	-9.78787
rARAm	-9.7879
▁parvata	-9.78829
he	-9.78957
▁mftyu	-9.7897
vIrya	-9.79043
▁prAyaH	-9.79104
upA	-9.79105
daSa	-9.79113
kAni	-9.7913
▁saBA	-9.79162
▁asmAka	-9.79227
banDa	-9.79399
sAm	-9.79438
anyaH	-9.79545
yAya	-9.79588
rAH	-9.79631
▁itTam	-9.79734
K	-9.79792
bIjam	-9.79832
at	-9.79932
▁E	-9.80015
▁mAyayA	-9.80102
▁praTamam	-9.80108
▁mano	-9.80117
▁pfzwaH	-9.80299
tf	-9.80356
▁bahuDA	-9.80391
tezu	-9.80503
▁divi	-9.80529
▁prajApatiH	-9.80532
varRanaM	-9.80591
guRam	-9.80613
masti	-9.80641
vIra	-9.807
Anu	-9.80733
▁miTyA	-9.80739
▁Gana	-9.80749
▁bahuBiH	-9.80754
▁mahAtmA	-9.80827
rAt	-9.8119
muKaH	-9.8121
▁mUtra	-9.8122
vidaH	-9.81242
▁Sastra	-9.81347
▁vijaya	-9.8137
▁tami	-9.81454
▁narAH	-9.81464
agnim	-9.81466
▁devEH	-9.81487
kAraRam	-9.81584
iRaH	-9.81594
▁pare	-9.81602
▁svA	-9.81613
▁jagataH	-9.81651
▁Gftam	-9.81681
▁Slezma	-9.81728
iBiH	-9.81791
▁dAnam	-9.81816
varta	-9.81819
tala	-9.81886
vizaya	-9.81906
▁aSva	-9.81914
▁granTa	-9.81936
viz	-9.8194
▁samAna	-9.82075
▁kzetra	-9.8214
▁smftAH	-9.82141
yamAnaH	-9.82206
▁trIRi	-9.82267
SabdaH	-9.82269
▁krama	-9.82279
▁BAgaH	-9.82281
▁pitaram	-9.82312
latA	-9.82367
▁kaTitam	-9.82429
zW	-9.82542
▁kadAcit	-9.82609
vAram	-9.82699
▁tAsAm	-9.8272
▁pati	-9.82734
Baya	-9.82763
anila	-9.82776
▁saMKyA	-9.82789
Bavet	-9.82856
dan	-9.82856
▁BAvaH	-9.82881
▁bAhya	-9.82912
▁kaRWa	-9.82972
GnaH	-9.82983
▁prApyante	-9.82991
▁putrAn	-9.82994
kzA	-9.83004
AtmanA	-9.83065
un	-9.83079
▁no	-9.83101
▁tIrTam	-9.83111
yuktA	-9.83158
AyAm	-9.83158
▁pARqava	-9.8316
yU	-9.83175
▁vAnara	-9.83182
▁rAjAnaH	-9.83189
praBa	-9.83211
▁lokaH	-9.83293
BUtaH	-9.83339
▁AtmanA	-9.83351
raTam	-9.83546
asmin	-9.83574
▁manasaH	-9.83576
atAm	-9.83651
manaH	-9.83653
▁dfzwa	-9.83712
DAtu	-9.83739
▁kft	-9.83751
▁DftarAzwraH	-9.83789
▁ekasmin	-9.83844
SIla	-9.83885
▁ar	-9.8393
aMSena	-9.83953
▁Ar	-9.84177
▁daDi	-9.84253
likA	-9.84254
▁ve	-9.84383
▁guroH	-9.84395
▁mala	-9.84404
▁viSvam	-9.84475
▁vftaH	-9.84539
▁svargam	-9.84555
▁Bavatu	-9.84571
▁Ka	-9.846
deha	-9.84606
duHKa	-9.84648
▁SrUyate	-9.84662
▁pAdO	-9.84711
sattva	-9.84786
ayat	-9.84858
▁mUlam	-9.84905
▁anv	-9.84911
vAda	-9.8496
Sabda	-9.84966
bIja	-9.85015
▁idAnIm	-9.85069
▁ciram	-9.85078
▁manuzya	-9.85142
praBA	-9.8517
uzRam	-9.8524
sy	-9.85265
dI	-9.85289
astra	-9.85321
▁hara	-9.85406
▁pARqavAn	-9.85543
▁S	-9.85612
▁kuntI	-9.85628
▁nf	-9.85652
BAvena	-9.85655
▁niH	-9.85806
▁vAri	-9.8584
▁ISvara	-9.85867
ASrama	-9.85885
▁liNgam	-9.85911
uBO	-9.85941
sarvam	-9.85987
▁bAREH	-9.86042
▁caturdaSa	-9.86061
▁dfzwaH	-9.86127
▁duzwa	-9.86172
▁icCA	-9.86177
tiH	-9.86189
▁Ananda	-9.86292
kfzRa	-9.86475
▁kanaka	-9.86631
▁ime	-9.8666
mAMsa	-9.86755
▁jarA	-9.86794
janma	-9.86808
Soka	-9.86829
▁Sukla	-9.86859
apaham	-9.86943
▁vat	-9.87172
▁jyotiH	-9.87203
▁nArI	-9.87217
tap	-9.87322
Atmaka	-9.8738
kal	-9.87417
▁sOmya	-9.87493
▁asmAkam	-9.87501
▁pArTaH	-9.87626
▁nanda	-9.87695
▁saMyuge	-9.87715
▁cittam	-9.87778
Wa	-9.87832
▁jIvitam	-9.8785
▁sakala	-9.87866
▁se	-9.88006
kuzWa	-9.88011
▁vidDi	-9.88013
▁uktavAn	-9.88104
tezAm	-9.88119
asura	-9.88134
▁SaktiH	-9.88216
▁dviDA	-9.8827
▁vyavasTA	-9.88277
▁darSanam	-9.88282
▁saMsTA	-9.88362
▁puram	-9.88375
fzayaH	-9.88412
▁Gora	-9.88421
ayAmAsa	-9.88486
aNgula	-9.88499
dAna	-9.88505
▁apara	-9.88513
yitum	-9.88527
sidDi	-9.88527
▁SakraH	-9.88604
aBra	-9.88639
yogaH	-9.88648
karmaRi	-9.88704
▁prajYApAramitA	-9.88848
▁ASu	-9.88898
▁vipraH	-9.889
▁sampra	-9.89045
Su	-9.89066
▁BUri	-9.89083
▁vijYAna	-9.89087
▁praTamaH	-9.89114
vacanam	-9.89116
▁rAga	-9.89117
▁Badra	-9.89156
as	-9.89219
▁AhAra	-9.89222
▁ISa	-9.89229
nATa	-9.89232
▁hita	-9.8938
vyavasTA	-9.89399
▁tElam	-9.89436
▁praRamya	-9.89457
▁paScima	-9.89475
▁prItaH	-9.89487
▁matvA	-9.8949
▁pary	-9.89504
par	-9.8951
cCa	-9.89518
▁Badram	-9.89611
DO	-9.8963
▁aneke	-9.89675
▁sUtra	-9.89681
▁SA	-9.89708
▁vIryam	-9.89739
puruza	-9.89799
▁dAna	-9.89813
▁bIja	-9.89914
▁Asa	-9.89997
▁SrezWaH	-9.90012
param	-9.90029
anyaTA	-9.90193
Bavati	-9.90241
hft	-9.90283
▁yAm	-9.9033
ty	-9.90351
▁jAnAti	-9.90352
▁pitaraH	-9.90415
vam	-9.90429
pAd	-9.90465
▁vratam	-9.90518
▁kzamA	-9.90525
▁viSizwa	-9.90563
tIrTam	-9.90602
▁apaSyat	-9.90611
nAH	-9.90637
fzi	-9.90659
ArTa	-9.9068
od	-9.90758
▁bARa	-9.90775
▁kAmaH	-9.90841
krama	-9.90842
▁un	-9.90852
BI	-9.90887
▁cira	-9.90889
▁vakzyAmi	-9.90918
▁bahiH	-9.90919
kAri	-9.90937
ntaH	-9.90952
ArTam	-9.91112
▁Darmasya	-9.9118
Se	-9.91211
▁pfTivIm	-9.9132
▁vyADi	-9.9133
▁viDiH	-9.91391
▁kO	-9.91403
▁kAraRa	-9.91452
▁vIkzya	-9.91476
dAH	-9.91602
AyAH	-9.91638
sTAH	-9.91667
pad	-9.91672
taraH	-9.91848
traya	-9.91897
▁tulya	-9.91999
budDi	-9.92092
sta	-9.92153
▁agacCat	-9.92163
▁sarpa	-9.92174
kzaya	-9.92211
▁yojayet	-9.92238
▁sutam	-9.92241
▁Beda	-9.92245
▁devatAH	-9.92285
up	-9.92397
▁arka	-9.92408
suKa	-9.92428
zwa	-9.92444
AtmajaH	-9.9247
dravya	-9.9249
kAlaH	-9.92505
anantaram	-9.92541
kowi	-9.92548
hara	-9.92553
Dvam	-9.92558
muKe	-9.92646
▁hfd	-9.92675
rasena	-9.927
uttaram	-9.92721
▁vraja	-9.9273
▁dvayoH	-9.92885
pUrRa	-9.92894
senA	-9.92896
▁pravakzyAmi	-9.92962
saMjYA	-9.92972
▁nAsIt	-9.92986
▁vIryavAn	-9.93034
Du	-9.93038
▁kfzi	-9.93096
▁fte	-9.93111
vas	-9.93137
▁badDvA	-9.93151
Asan	-9.93182
vftta	-9.93259
▁moha	-9.9329
▁rudDvA	-9.9334
▁kzatra	-9.93395
▁prAptA	-9.93397
Eva	-9.9349
vane	-9.93543
▁prIti	-9.93643
lAH	-9.93708
tasmAt	-9.93725
▁sTitAH	-9.93735
▁Sam	-9.93753
▁jAti	-9.93775
▁icCati	-9.93791
PalA	-9.93816
▁yava	-9.93822
▁lavaRa	-9.93874
▁gavAm	-9.93876
▁Dan	-9.93896
eSvara	-9.93953
▁sAgara	-9.93956
UrDvam	-9.94019
▁vEdika	-9.94021
nanda	-9.9403
▁Suci	-9.94059
BUtAH	-9.94072
akam	-9.94072
diS	-9.9408
▁pramARa	-9.94083
InAm	-9.94089
▁SrIkfzRa	-9.9412
sO	-9.94124
tvayA	-9.94197
rTa	-9.94207
vAsa	-9.94235
▁ne	-9.94244
SvAsa	-9.94258
BUtAnAm	-9.94339
▁kavi	-9.94342
rU	-9.94358
loha	-9.94366
karRa	-9.94409
pakza	-9.9447
▁yAtrA	-9.94584
▁Sukra	-9.94649
kAr	-9.94677
▁lokezu	-9.94693
▁apA	-9.9472
▁SrezWa	-9.94749
▁Arya	-9.94832
Yc	-9.94845
vart	-9.94894
▁gA	-9.94907
▁matsya	-9.94979
▁yaTAvat	-9.95011
▁priye	-9.95025
daRqa	-9.95083
▁paTi	-9.95085
nASanam	-9.95091
▁yajYaH	-9.95119
▁rakz	-9.95144
mayA	-9.95168
▁uda	-9.95179
▁BA	-9.95219
ukte	-9.95241
▁niSamya	-9.95244
▁Bagavantam	-9.95315
▁SirasA	-9.95323
▁satAm	-9.95332
▁svasti	-9.95353
rAm	-9.95424
guR	-9.95431
hitaH	-9.9555
▁vahni	-9.95597
▁vini	-9.95627
vaSAt	-9.95666
inAm	-9.95679
▁ucca	-9.95744
▁pala	-9.95805
▁gatavAn	-9.95919
rAtram	-9.9599
rAga	-9.96048
▁yadu	-9.96066
▁Bavizyanti	-9.96203
▁kvacit	-9.96231
AnusAraM	-9.96237
▁saMjaya	-9.96328
agninA	-9.96336
▁sTApanA	-9.9635
dina	-9.96363
▁svAdu	-9.96409
pAt	-9.96435
▁caret	-9.9648
Atmani	-9.96537
▁liNga	-9.96539
kAya	-9.96541
rasEH	-9.96555
▁akza	-9.9656
▁man	-9.96606
ayanti	-9.96626
▁puruzasya	-9.96645
avaH	-9.96647
sapta	-9.96667
▁bAhu	-9.96677
▁gatA	-9.96696
▁sampUrRa	-9.9681
▁pARqavaH	-9.96817
▁uzRa	-9.96862
lEH	-9.96917
dala	-9.96935
paYca	-9.96952
▁prARaH	-9.97043
▁tApa	-9.97043
kAraRa	-9.97048
▁DUma	-9.97056
▁tEla	-9.97122
sTe	-9.97201
arDam	-9.9721
akza	-9.97221
▁Agatya	-9.97264
▁yogaH	-9.97332
▁viBo	-9.97348
▁aS	-9.9737
▁ityet	-9.9741
▁keSa	-9.97413
▁Bavat	-9.97427
ase	-9.97445
▁pArSve	-9.97463
▁anantaram	-9.97486
▁mahIm	-9.97557
▁vaMSa	-9.97581
▁kftavantaH	-9.97675
▁Sakyam	-9.97711
▁maRqala	-9.97718
nirmARaM	-9.97767
▁viprAH	-9.97786
▁svar	-9.97806
pAta	-9.9788
▁AdayaH	-9.97924
varam	-9.9796
sara	-9.97966
niz	-9.97978
moha	-9.98045
▁vidyamAna	-9.98091
▁droRa	-9.98154
▁nEva	-9.9816
▁rAvaRaH	-9.9818
▁aDas	-9.98191
boDa	-9.98204
varRam	-9.98205
aBAzata	-9.98232
▁budDa	-9.98249
▁dIpa	-9.98253
▁dvijAH	-9.9827
tEla	-9.98271
▁Bizaj	-9.98279
tar	-9.98288
▁badDa	-9.98372
hI	-9.98413
▁rUpeRa	-9.9842
vataH	-9.98444
▁gIta	-9.98444
devAlayaH	-9.98541
▁lip	-9.98561
▁Sivam	-9.98564
▁kaScit	-9.98583
▁manyante	-9.98588
▁ApaH	-9.98681
▁guRAn	-9.98684
▁kAr	-9.98724
▁kamala	-9.98733
sTalaM	-9.98749
karI	-9.98808
▁itas	-9.98814
rARi	-9.98829
▁divam	-9.98843
imam	-9.98852
▁vyAkaraRa	-9.98861
▁SEla	-9.98939
vfdD	-9.98996
▁nazwa	-9.99057
▁mo	-9.99176
▁caraRa	-9.99193
▁tftIya	-9.99214
▁karRam	-9.99232
▁prasanna	-9.99293
▁Kara	-9.99295
▁SUla	-9.99327
mAsasya	-9.99348
anI	-9.99391
▁strIRAm	-9.99408
ISvara	-9.9942
ambara	-9.99444
RaM	-9.99448
pateH	-9.99484
▁tUrRam	-9.99504
▁SuBA	-9.99509
sTAna	-9.99511
▁nftya	-9.99589
sena	-9.99607
▁pU	-9.99607
Rqa	-9.99615
▁Sruti	-9.99672
AKyaH	-9.99673
gu	-9.99735
▁rudraH	-9.99784
▁sTitiH	-9.99792
graha	-9.99807
▁varDate	-9.99816
kftya	-9.99819
▁jYAnaM	-9.99829
▁par	-9.99952
▁Saknoti	-9.99977
Ro	-9.99993
▁pe	-10.0002
sUtra	-10.0013
▁bali	-10.0019
▁vivyADa	-10.0022
▁proktaH	-10.0027
▁banDa	-10.0028
▁kapi	-10.0028
▁AsTAya	-10.0028
yor	-10.0029
▁mArga	-10.0039
mAnAH	-10.0051
Nka	-10.0053
▁praTamA	-10.0056
▁kaTaMcana	-10.0058
▁uBO	-10.0066
KA	-10.0068
▁kal	-10.0071
▁kAnta	-10.0089
▁aKila	-10.0091
▁nidrA	-10.0092
Sak	-10.0099
▁harza	-10.0104
▁pramARam	-10.0105
gatAH	-10.0105
jYAH	-10.0112
ntI	-10.0113
SiraH	-10.0114
▁tvaM	-10.0124
▁viSve	-10.013
▁pfTu	-10.0132
maRi	-10.0133
▁Boga	-10.0134
▁budDyA	-10.0135
▁dravyam	-10.0137
▁qA	-10.0138
▁pakza	-10.0145
▁tAM	-10.0146
▁viSvasya	-10.0151
Ur	-10.0151
▁kAm	-10.0156
vAdi	-10.0165
▁roga	-10.017
▁pARqavAnAm	-10.017
▁vajram	-10.0173
dAra	-10.0175
sAD	-10.0179
akzi	-10.0188
▁mAnavaH	-10.0191
▁niSi	-10.0193
▁vyAsaH	-10.0196
▁viBuH	-10.0206
kAryam	-10.021
Dara	-10.0213
mala	-10.0215
AtmakaH	-10.0219
hasta	-10.022
gAH	-10.0222
amara	-10.0225
▁karmaRi	-10.0225
▁deyam	-10.0228
tIrTa	-10.0231
kala	-10.0233
strI	-10.0235
▁Buja	-10.0238
saMyutam	-10.0251
▁SudDam	-10.0251
vastu	-10.0252
▁gAm	-10.0252
▁cit	-10.0253
▁pitAmahaH	-10.0263
zwe	-10.0264
▁cakruH	-10.0264
▁kaTayanti	-10.0266
▁AcArya	-10.0268
▁pratyakza	-10.0278
▁samud	-10.0279
jIva	-10.0288
▁SAnta	-10.0289
Dana	-10.0289
Ama	-10.0291
▁sarpiH	-10.0292
nda	-10.0294
▁BayAt	-10.0296
▁snigDa	-10.0299
SaktiH	-10.0301
▁nAmAni	-10.0304
padma	-10.0307
▁Agatam	-10.0308
▁BImasenaH	-10.031
▁pI	-10.0315
indu	-10.0322
▁kaviH	-10.0331
UrDva	-10.0334
BUtA	-10.0336
qu	-10.0342
pradeSasya	-10.0348
vayaM	-10.0353
Be	-10.0356
asyAH	-10.036
▁cAru	-10.0361
pAna	-10.0361
▁haya	-10.0364
yogAt	-10.0364
ved	-10.0367
cI	-10.0369
rItyA	-10.037
▁samasta	-10.037
▁sidDam	-10.0374
▁divA	-10.0376
AyuH	-10.0386
▁vada	-10.0387
BAgaH	-10.0387
kftA	-10.0395
▁danta	-10.0397
aNgam	-10.04
▁ezAm	-10.0401
▁etAn	-10.0401
▁prasAda	-10.0402
▁arTam	-10.0403
▁praTamaM	-10.0409
balAH	-10.0409
ndr	-10.041
▁etEH	-10.0411
▁lakza	-10.0412
▁vAsa	-10.0414
▁uBayoH	-10.0418
▁Srotum	-10.0418
▁vapuH	-10.042
pI	-10.0442
itvA	-10.0442
dine	-10.0443
tapaH	-10.0454
▁BIzma	-10.0464
▁sTAna	-10.0478
mama	-10.0479
ari	-10.0482
▁vrajet	-10.0484
▁dfzwam	-10.0492
Yja	-10.0507
▁BavitA	-10.0515
▁brAhmaRAn	-10.0518
kzetra	-10.0523
aye	-10.0528
kartA	-10.0528
▁suhfd	-10.0529
pann	-10.0531
vAra	-10.0532
▁yAn	-10.0533
▁Boja	-10.0539
▁mahyam	-10.054
▁samAsAdya	-10.0541
▁qa	-10.0542
▁granTaH	-10.0553
▁hitvA	-10.0557
midaM	-10.0557
citta	-10.0562
▁jIvati	-10.0563
▁hiraRya	-10.0565
▁akurvan	-10.057
▁svapna	-10.0572
indriyaH	-10.0579
▁dozaH	-10.0582
Sva	-10.0584
▁paYcame	-10.0594
▁dIkzA	-10.0597
▁tIvra	-10.0599
vaMSa	-10.0603
▁sv	-10.0604
Binna	-10.0608
▁prema	-10.061
▁re	-10.0616
▁vfkza	-10.062
amfta	-10.062
▁samantAt	-10.0623
▁asmABiH	-10.0624
matI	-10.0634
vratam	-10.0635
▁jvara	-10.0636
fzw	-10.0641
▁kOnteya	-10.0641
▁prAc	-10.0642
▁sarasvatI	-10.0645
varti	-10.0646
▁sAhitya	-10.0652
▁saMgrAme	-10.0655
▁sakft	-10.0657
▁sarv	-10.066
▁saMsAra	-10.0662
▁graha	-10.0664
▁snAna	-10.0667
▁apare	-10.0669
BAzya	-10.067
▁vayaH	-10.0671
▁manuH	-10.0674
▁bIjam	-10.0676
▁hindu	-10.0678
▁ved	-10.0679
▁SikzA	-10.0686
▁brahmaRA	-10.0692
▁etAH	-10.0696
▁paSyan	-10.0703
▁sparSa	-10.0703
▁karmaRaH	-10.0707
▁haMsa	-10.0714
▁netra	-10.0714
▁labDvA	-10.073
viDAnasaBAkzetra	-10.0732
▁sTitvA	-10.0732
▁grAma	-10.0733
▁jajYe	-10.0733
caraRa	-10.0734
SI	-10.0745
kArI	-10.0752
▁be	-10.0753
▁as	-10.0754
▁kadApi	-10.0754
▁pfTivyAm	-10.0755
▁SAsana	-10.0762
grAme	-10.0763
▁paSyanti	-10.0763
▁yogI	-10.0764
nAmnA	-10.0769
raTAH	-10.0773
▁sarvA	-10.0775
yizyati	-10.0775
▁vAcam	-10.0777
▁Si	-10.0779
vrat	-10.0779
▁paYcaBiH	-10.0785
▁tris	-10.0792
▁Sva	-10.0792
▁sTira	-10.0796
▁yaTAviDi	-10.0801
▁hima	-10.0802
▁etezu	-10.0805
▁vrata	-10.0815
▁yEH	-10.0815
▁pizwvA	-10.0817
▁ityezaH	-10.0818
▁ravi	-10.0819
viBAge	-10.0823
paraH	-10.0824
netra	-10.083
▁DarmeRa	-10.0837
sTitA	-10.0839
▁BrAtA	-10.0842
▁Sriyam	-10.0845
nandana	-10.0852
rAya	-10.0855
▁priyaH	-10.0857
▁prakAreRa	-10.0861
▁prAptuM	-10.0861
▁kasyacid	-10.0862
kanyA	-10.0863
pUjA	-10.0865
▁vraRa	-10.0878
▁etam	-10.0879
▁mADava	-10.0882
▁CAyA	-10.0882
▁lA	-10.0886
AdInAM	-10.0889
▁putrasya	-10.0904
▁kAryARi	-10.0909
▁acyuta	-10.091
nava	-10.0915
▁amara	-10.0917
upamam	-10.092
▁pAra	-10.092
▁mataH	-10.0922
vastra	-10.0922
▁kuSa	-10.0923
agratas	-10.0928
▁alam	-10.0932
▁ityeva	-10.094
▁anta	-10.0942
gAn	-10.0943
▁grAme	-10.0945
▁dizwyA	-10.095
▁aDaH	-10.0951
▁balAt	-10.0954
danta	-10.0955
▁deham	-10.0963
bahu	-10.0967
▁tattvam	-10.0971
▁niSA	-10.0973
▁jihvA	-10.0975
▁vfdDa	-10.098
itAni	-10.0984
▁anyA	-10.0987
▁lokasya	-10.0988
▁AdO	-10.0996
▁kOSika	-10.1
vyADi	-10.1006
SarIra	-10.1006
▁yo	-10.1007
ABaraRa	-10.1007
maya	-10.1008
▁samAhitaH	-10.1009
▁yayA	-10.1011
pIq	-10.1014
vallI	-10.1019
vfttiH	-10.1025
▁sahitaH	-10.1034
punar	-10.1039
avi	-10.1041
ASram	-10.1044
Sara	-10.1048
pAtra	-10.1052
SrI	-10.1059
bi	-10.1061
anvitam	-10.1062
▁maDuram	-10.1063
▁BAra	-10.1065
SUla	-10.1068
▁SarIrasya	-10.1069
Ava	-10.107
▁nagara	-10.107
▁sAra	-10.1072
AdeH	-10.1073
aS	-10.1078
karaRam	-10.1081
▁ityatra	-10.1081
syApi	-10.1081
▁ru	-10.1085
▁azwO	-10.1087
▁dAha	-10.1094
▁ap	-10.1098
han	-10.1102
▁nI	-10.1106
▁snigDam	-10.1108
gaRAH	-10.1109
▁suBUte	-10.112
▁pratizWA	-10.1123
pala	-10.1123
▁agnim	-10.1126
▁nirmitam	-10.1129
SAlA	-10.1129
▁vartante	-10.1132
Un	-10.114
▁samBavati	-10.1142
gati	-10.1145
hAra	-10.1145
ze	-10.1147
▁kurvIta	-10.1156
▁eta	-10.1156
pramARa	-10.1157
▁triDA	-10.1159
yamAnA	-10.116
▁dIp	-10.1162
▁japet	-10.1169
▁vidyut	-10.117
viD	-10.1172
viDiH	-10.1179
▁sTiti	-10.118
▁kAYcana	-10.1182
etAni	-10.1184
▁KyAtaH	-10.1187
gatiH	-10.1187
▁tAdfS	-10.1196
karaRa	-10.1197
karmA	-10.121
kanda	-10.1211
BAra	-10.1219
ISa	-10.122
▁laByate	-10.1222
anaM	-10.1222
▁sinDu	-10.1224
▁devasya	-10.1226
▁viDIyate	-10.1228
lena	-10.1235
▁balI	-10.1235
▁je	-10.1236
▁BUmiH	-10.1238
▁rAzwriya	-10.1238
▁diSam	-10.124
▁mAr	-10.1243
▁Pa	-10.1247
▁PalAni	-10.125
inA	-10.1255
▁carma	-10.1257
▁triPalA	-10.1261
gate	-10.1263
▁vyAKyAsyAmaH	-10.1265
▁mAnava	-10.1266
▁bahUn	-10.1266
tavyam	-10.1272
pAn	-10.1273
▁AstAm	-10.1274
▁catvAri	-10.1276
apare	-10.128
▁yajY	-10.1282
samaH	-10.1284
gal	-10.1284
karmaRA	-10.1287
▁jYeyam	-10.1288
▁ho	-10.1292
▁pratimA	-10.1295
nadyAH	-10.1299
gfhe	-10.1299
▁vegena	-10.13
sTiti	-10.1301
▁arjuna	-10.1303
Damet	-10.1306
yAnAm	-10.1306
avAn	-10.1306
▁praBAvaH	-10.1307
Iyam	-10.1313
▁jIv	-10.1318
▁kule	-10.1318
▁di	-10.1332
▁jIvana	-10.1336
vijYAna	-10.134
pArSva	-10.134
tapAH	-10.1343
uktA	-10.1346
yuktAH	-10.1347
ekaM	-10.135
BAgam	-10.1354
▁kzIRa	-10.1355
▁mEtreyaH	-10.1356
▁yakza	-10.1358
parA	-10.1359
kzIra	-10.1362
▁sidDi	-10.1364
▁purastAt	-10.137
▁mar	-10.137
▁mftam	-10.138
priya	-10.1381
vfkza	-10.1386
devatA	-10.1387
Arya	-10.1387
gfham	-10.1389
ekA	-10.1389
dravEH	-10.1391
▁rAzwra	-10.1393
▁puruzAH	-10.1393
▁jagmuH	-10.1395
▁upayogaH	-10.1395
RAt	-10.1396
kAnAm	-10.1399
▁balavAn	-10.1402
▁BAvayet	-10.1406
▁tfzRA	-10.1407
▁SAnti	-10.1414
gatA	-10.1416
▁pUrve	-10.1416
▁pitAmaha	-10.1422
▁veDa	-10.1423
▁snAnam	-10.1423
praBfti	-10.1429
▁mUzA	-10.1432
saMyuktam	-10.1439
ikam	-10.1441
▁vedAH	-10.1442
▁vAsudevaH	-10.1444
▁somaH	-10.1446
BedaH	-10.1446
▁samIpa	-10.1447
yanta	-10.1457
▁paritaH	-10.1459
arhasi	-10.1463
▁dvitIye	-10.1464
▁roma	-10.1466
mAtrA	-10.1468
ot	-10.1468
AKye	-10.1468
aNgaH	-10.1473
vacaH	-10.148
krIqA	-10.1484
tApa	-10.1484
nagara	-10.1487
▁gantum	-10.1488
▁vistAraH	-10.1495
▁rakzaH	-10.1495
sAgara	-10.1498
▁brAhmaRam	-10.1502
Rena	-10.1502
▁hetu	-10.1505
tulya	-10.1508
▁buDaH	-10.151
ekena	-10.1513
lakzya	-10.1519
matiH	-10.1525
hari	-10.1526
▁Sak	-10.1533
▁vAkya	-10.1536
▁DyAna	-10.1541
AgataH	-10.1543
muKI	-10.1544
gI	-10.1546
▁vyoma	-10.1549
saMsTAyAH	-10.1549
▁pratyeka	-10.1551
vrataH	-10.1554
▁BUH	-10.1557
▁pavitra	-10.1559
kAreRa	-10.1563
▁manuzyaH	-10.1564
▁ekAdaSa	-10.1564
▁GorI	-10.1568
▁saMjYA	-10.1569
▁tyakta	-10.1571
▁brAhmaRasya	-10.1572
▁tvat	-10.1574
or	-10.1576
dinANka	-10.1577
devasya	-10.158
varRaH	-10.1581
▁yogam	-10.1583
▁gam	-10.1585
Bft	-10.1592
▁sve	-10.1594
▁putrI	-10.1596
uttamaH	-10.1599
▁amftam	-10.1603
▁ASrama	-10.1611
▁droRam	-10.1613
▁SIGra	-10.1613
▁SyAma	-10.1615
▁pade	-10.1616
▁harim	-10.1616
▁kanyAm	-10.1622
▁parya	-10.1624
▁kOrava	-10.1625
yaSAH	-10.1625
Bya	-10.1627
▁mahilA	-10.1627
kalpa	-10.1629
▁jagrAha	-10.1629
▁piRqa	-10.1636
▁sita	-10.1638
vrata	-10.1639
▁pItvA	-10.164
▁parva	-10.1641
sw	-10.1646
▁yayuH	-10.1646
talam	-10.1648
T	-10.165
vfttam	-10.1652
▁datta	-10.1654
▁praBA	-10.1655
tAnAm	-10.166
so	-10.1662
▁ugra	-10.1664
▁Sizya	-10.1666
kezu	-10.1667
▁jAtu	-10.1668
▁viDAya	-10.1669
dBiH	-10.1669
hU	-10.1671
▁anyatamaH	-10.1693
udaka	-10.1695
Srama	-10.1696
▁kiYca	-10.1698
Asana	-10.17
▁SIla	-10.1711
ikaH	-10.1713
▁BavantaH	-10.1713
▁dayA	-10.1717
AcAra	-10.1718
dra	-10.1719
▁SAka	-10.172
vyAGra	-10.1722
▁BartuH	-10.1724
BAvAt	-10.1724
▁samAja	-10.1731
▁karza	-10.1734
▁banDu	-10.1734
jAyate	-10.1744
▁asmAt	-10.1745
▁kalyARa	-10.175
viSezaH	-10.1751
▁dozAH	-10.1755
varaH	-10.1756
▁yuDizWiram	-10.1759
vatAm	-10.1759
RqA	-10.1764
mandiram	-10.1766
▁adButam	-10.1766
▁karizyati	-10.1767
muniH	-10.1773
▁vAsaH	-10.1778
▁cintA	-10.1781
anyA	-10.1782
yituM	-10.1783
▁praTame	-10.1787
▁vivAha	-10.1794
maRqala	-10.1795
BAj	-10.1795
▁parityajya	-10.1797
▁parASaraH	-10.1803
TA	-10.1806
▁papracCa	-10.1807
▁viSezeRa	-10.1814
▁pratya	-10.1814
nagarAt	-10.1814
▁baBUvuH	-10.1814
sparSa	-10.1816
▁sidDim	-10.182
balA	-10.182
gala	-10.182
yantaH	-10.1821
▁agra	-10.1824
▁DArayet	-10.1826
Ga	-10.1829
▁kadAcana	-10.1831
▁Bagna	-10.1842
▁kzetram	-10.1842
▁BIzmam	-10.1851
▁dadfSuH	-10.1855
▁mita	-10.1858
kaw	-10.186
▁Darme	-10.1868
pate	-10.1873
▁DanaMjayaH	-10.188
▁antima	-10.1881
tre	-10.1886
▁SrezWam	-10.1887
▁pitrA	-10.1895
AhAra	-10.1899
aTavA	-10.1899
▁ahar	-10.19
SAstre	-10.1901
▁kAka	-10.1903
▁kumBa	-10.1904
▁papAta	-10.1905
vAs	-10.1907
vo	-10.1908
▁kuzWa	-10.1908
▁SivA	-10.191
▁parvataH	-10.1913
ur	-10.1917
itO	-10.1918
▁sarvasya	-10.192
▁kumAra	-10.1922
▁provAca	-10.1928
▁gAvaH	-10.193
▁prajAnAm	-10.193
gaREH	-10.1931
▁pArSva	-10.1938
varRanam	-10.1939
sar	-10.1942
▁SarkarA	-10.1943
▁patra	-10.1944
sevA	-10.1945
yataH	-10.1947
rAjyaM	-10.1948
anvitaH	-10.1949
yukta	-10.195
▁siDyati	-10.1954
▁vicAra	-10.1954
rajaH	-10.1955
yAtrA	-10.1956
▁sidDiH	-10.1957
▁jaGAna	-10.1958
▁kzudra	-10.1961
SArdUla	-10.1962
yajYa	-10.1964
▁svara	-10.1964
udakam	-10.1966
▁gatam	-10.1967
hu	-10.1972
▁karomi	-10.1973
▁paScime	-10.198
▁saMKye	-10.1983
asra	-10.1983
▁bAlaH	-10.1985
▁kAra	-10.1986
ganDA	-10.1988
▁nadyaH	-10.1991
mArgeRa	-10.1993
ulleKaH	-10.2003
▁prApnot	-10.2004
budDiH	-10.2005
kule	-10.2005
viS	-10.2006
aDika	-10.2012
▁smara	-10.2012
▁Bfgu	-10.2013
kAsa	-10.2019
▁var	-10.202
pIta	-10.2021
▁hetuH	-10.2025
▁dvitIyaH	-10.2026
▁hfdaye	-10.2027
▁kzetre	-10.2029
▁Cinna	-10.2035
eyam	-10.2039
▁tIrTe	-10.204
▁lakzmI	-10.2041
▁brUyAt	-10.2043
hite	-10.2048
▁smftA	-10.2051
aDipaH	-10.2052
▁prahasan	-10.2054
▁uttare	-10.2055
▁jAyante	-10.2055
nimitta	-10.2057
pary	-10.2067
▁prApte	-10.2077
Buj	-10.2079
Apa	-10.208
▁uru	-10.2087
▁anyonyam	-10.2093
▁kzatriya	-10.2103
mfga	-10.2107
ABam	-10.2109
▁vigata	-10.211
Q	-10.211
nna	-10.2113
KaRqa	-10.2116
▁kazAya	-10.2119
▁hetoH	-10.212
▁proktA	-10.2121
▁sahasrARi	-10.2122
BUtAni	-10.2126
▁varA	-10.2127
▁vedanA	-10.2128
▁dfQam	-10.2128
▁As	-10.2133
▁pratyuvAca	-10.2135
▁kzAra	-10.2137
imAm	-10.2137
▁BImasena	-10.214
▁samprati	-10.2143
▁nirmitaH	-10.2144
vanti	-10.2145
hetoH	-10.2158
tIkzRa	-10.2159
▁pravizwaH	-10.2166
mahe	-10.2167
▁seva	-10.2167
▁asmAn	-10.2174
guRaH	-10.2174
▁jEna	-10.2175
▁Darm	-10.2178
azwO	-10.218
IyA	-10.2185
dAnam	-10.2186
GnI	-10.2187
▁ari	-10.219
vantam	-10.2191
▁kzaRam	-10.2197
▁tvac	-10.2198
hfd	-10.2211
▁tizWa	-10.2214
Apnoti	-10.2215
taM	-10.2224
▁surA	-10.2226
▁idAnIM	-10.2226
▁purIm	-10.2229
▁mftyoH	-10.2232
▁granTe	-10.2236
▁viSezaH	-10.2242
▁nArAyaRaH	-10.2244
kza	-10.225
▁mahApurARe	-10.2252
▁ityasyA	-10.2258
▁dfzwi	-10.2262
aRqa	-10.2262
▁spazwa	-10.2263
▁prasidDA	-10.2268
kAl	-10.2268
▁mAM	-10.2275
yantra	-10.2275
vAdI	-10.2276
▁gregorI	-10.2277
▁SriyA	-10.2279
▁yUyam	-10.2279
▁krUra	-10.2282
Gna	-10.2285
mada	-10.2295
▁dIna	-10.2296
▁cUrRam	-10.2297
▁Aste	-10.2298
mAtA	-10.23
nIya	-10.2305
▁Kam	-10.231
▁santaH	-10.2311
▁madana	-10.2318
▁jalaM	-10.232
grahe	-10.2321
RqI	-10.2323
bar	-10.2331
▁tadanantara	-10.2335
▁tArA	-10.2336
mano	-10.234
▁tanu	-10.2341
▁gantu	-10.2344
avasTA	-10.2346
▁kAryaH	-10.2347
agnO	-10.2348
ras	-10.2348
BUte	-10.2348
vantO	-10.2353
izu	-10.2353
vijaya	-10.2358
krameRa	-10.2359
▁prAptAH	-10.236
▁sad	-10.2363
jAta	-10.2363
▁carcA	-10.2364
▁SuBe	-10.2364
▁ASA	-10.2365
▁svena	-10.2366
▁BImam	-10.2369
▁jAtAH	-10.2377
mas	-10.2378
gfha	-10.2385
datta	-10.2385
viDi	-10.2388
▁rakza	-10.2393
ISvaram	-10.2393
▁SAKA	-10.2396
▁mucyate	-10.2399
▁paraMtapa	-10.24
cCA	-10.2402
▁gulma	-10.2407
nasya	-10.2408
▁devIm	-10.241
▁uBaya	-10.2411
▁naBaH	-10.2411
▁dfzwA	-10.2414
tvac	-10.2414
▁anA	-10.2416
▁mi	-10.2417
▁stana	-10.2419
parRI	-10.242
▁sahasram	-10.2421
▁rAGavaH	-10.2427
▁rase	-10.2431
▁nUtana	-10.2434
mad	-10.2437
▁sTite	-10.2443
▁mUrDni	-10.2445
oyaM	-10.2446
▁vAra	-10.2448
kze	-10.2454
▁tfRa	-10.2459
Bedena	-10.2463
pure	-10.2466
▁nATa	-10.2467
zwu	-10.247
ikAH	-10.2473
▁jIvan	-10.2473
tantra	-10.2476
▁mandirasya	-10.2479
▁karizyAmi	-10.2483
▁dIpta	-10.2485
▁o	-10.2485
▁prApat	-10.2486
rAjena	-10.2491
Rqi	-10.2491
Asu	-10.2493
Nk	-10.2494
ul	-10.2494
raRa	-10.2498
oGa	-10.2501
▁tiryak	-10.2507
▁paYcadaSa	-10.2507
tAra	-10.2513
patnI	-10.2515
▁BUtezu	-10.2517
PalaH	-10.2518
▁vIrAH	-10.2518
mAnena	-10.2522
cUrRa	-10.2523
pratyaya	-10.2523
▁puras	-10.2524
rAjye	-10.2524
aja	-10.2525
AkAra	-10.2526
▁trayodaSa	-10.2536
▁kali	-10.2537
AdinA	-10.2542
▁vizayaH	-10.2543
▁ftu	-10.2544
jaya	-10.2545
vAsinaH	-10.2549
rase	-10.2551
yase	-10.2552
▁ekasya	-10.2552
▁tuByam	-10.2555
▁muktaH	-10.2555
▁kfmi	-10.2555
mAnA	-10.2559
▁nya	-10.2562
▁BAgam	-10.2564
sAr	-10.2571
▁suDA	-10.2572
pana	-10.2573
Ara	-10.2582
▁sEnyam	-10.2583
▁aTo	-10.2588
▁maDyapradeSa	-10.2588
kzaye	-10.259
▁divase	-10.259
Bram	-10.2599
Amaya	-10.2602
▁guqa	-10.2604
▁vadan	-10.2605
▁kAlidAsa	-10.261
▁karRAwakarAjy	-10.2611
Bav	-10.2617
AcArya	-10.2626
▁mAtaram	-10.2628
▁varzA	-10.263
▁hIna	-10.2635
REH	-10.2636
▁hu	-10.2642
▁SradDayA	-10.2643
▁priyA	-10.2651
▁mAsa	-10.266
▁prakftiH	-10.266
badDa	-10.266
pAka	-10.2662
napaYcANgAnusAra	-10.2665
arTI	-10.2666
▁svAmI	-10.2667
avyayam	-10.2669
▁duryoDana	-10.2679
▁ganDakam	-10.2682
▁pfTvIrAja	-10.2687
▁pratApavAn	-10.2695
▁viz	-10.2695
Bu	-10.2697
▁saKA	-10.2698
▁narendra	-10.27
darSa	-10.2701
▁DAma	-10.2702
▁vasati	-10.2707
Badra	-10.2709
▁nABi	-10.2711
kAnAM	-10.2712
▁indriyARi	-10.2713
avocat	-10.2714
▁madra	-10.2715
rARAM	-10.2716
aDikam	-10.2716
▁durgA	-10.2716
kzI	-10.2717
ntam	-10.2722
mahAn	-10.2723
▁viduraH	-10.2723
▁yojanA	-10.2735
▁viBinna	-10.2741
BAz	-10.2741
tulyam	-10.2741
rak	-10.2742
▁yoginaH	-10.2743
Bo	-10.2744
▁daSaBiH	-10.2745
alam	-10.275
▁SravaRa	-10.2751
▁drava	-10.2753
▁rAmamohana	-10.2754
cara	-10.2758
▁vasizWaH	-10.2759
haraH	-10.2762
dar	-10.2764
▁bata	-10.2768
▁vidyante	-10.2772
uktAH	-10.2773
▁tyajet	-10.2773
gaQa	-10.2773
pAtre	-10.2775
▁anyAn	-10.2783
eyuH	-10.2783
kAvya	-10.2785
▁mAsi	-10.279
▁kfzRasya	-10.279
▁karaRIyam	-10.2792
▁BarataH	-10.2793
varRA	-10.2797
▁jIvaH	-10.28
▁jIvet	-10.2803
Sastra	-10.2804
▁dattA	-10.2804
▁SUdra	-10.2805
▁utTAya	-10.2807
▁parAm	-10.2814
dfS	-10.2815
Bir	-10.2816
▁dehe	-10.2817
▁mahAmate	-10.2819
AyuDa	-10.2822
▁kzIram	-10.2823
pradeSa	-10.2824
▁vijYAya	-10.2825
▁aty	-10.2838
putrAH	-10.2843
Bakti	-10.2845
▁Bagavati	-10.2848
▁uttarA	-10.2852
▁Dfta	-10.2853
▁pracalat	-10.2855
▁daRqaH	-10.286
pradam	-10.2863
garBa	-10.2864
akz	-10.2866
▁lok	-10.2867
priyA	-10.2868
▁etAvat	-10.2871
▁prARi	-10.2875
SAKA	-10.2875
sra	-10.2876
▁AcAra	-10.2876
Slezma	-10.288
▁b	-10.2883
varmA	-10.2885
▁samAcaret	-10.2886
▁vAsudeva	-10.2892
▁ro	-10.2893
Arti	-10.2893
kftAH	-10.2895
▁dehi	-10.2896
▁mriyate	-10.2899
▁janasaNKyA	-10.2901
▁sU	-10.2914
yantI	-10.2914
▁kzayam	-10.2915
pr	-10.2922
▁anayA	-10.2926
▁kleSa	-10.2927
ik	-10.2927
▁mftaH	-10.2929
tejasA	-10.293
▁samADi	-10.2932
▁viviDAni	-10.2933
enAm	-10.2935
ASI	-10.2935
itaM	-10.2935
▁vfza	-10.2941
brAhmaRa	-10.2942
rAzwra	-10.2942
Sabdena	-10.2943
hema	-10.2943
mfd	-10.2944
▁keSava	-10.2947
▁sutAH	-10.2949
pAWa	-10.2951
▁carati	-10.2953
▁maheSvaraH	-10.2954
kaRW	-10.2958
▁paSavaH	-10.2959
▁jagati	-10.2961
▁preta	-10.2964
▁Bo	-10.2972
▁tAla	-10.2973
nAmA	-10.2983
putrasya	-10.2993
ntu	-10.2995
▁pUrvA	-10.2997
▁Pal	-10.2998
mate	-10.2999
▁vfttam	-10.2999
▁ji	-10.2999
udara	-10.3005
▁yuvA	-10.3013
▁DImAn	-10.3016
So	-10.3019
syEva	-10.3019
▁SUrAH	-10.3021
▁kzaRAt	-10.3021
Asanam	-10.3023
▁SUraH	-10.3026
▁raktam	-10.3027
▁upayujyat	-10.3029
▁vftra	-10.3031
▁viviDEH	-10.3032
Boga	-10.3032
▁tftIye	-10.3036
▁ci	-10.3038
dat	-10.3038
mantr	-10.3039
▁yuge	-10.3042
asva	-10.3051
rUpaM	-10.3051
▁guhA	-10.3053
▁kAraRAt	-10.3054
hata	-10.3054
siMha	-10.3058
▁lakzmaRaH	-10.306
pradA	-10.3061
asat	-10.3065
nandanaH	-10.3069
▁prAhuH	-10.307
▁nAqI	-10.307
prasAda	-10.307
▁po	-10.3075
asmE	-10.3078
Mga	-10.3084
▁rAjYAm	-10.3085
dAsaH	-10.3085
▁bfhad	-10.3088
▁rAkzasaH	-10.3088
▁karmaBiH	-10.3088
▁Apnoti	-10.3089
janEH	-10.3089
▁pradeSe	-10.309
ata	-10.3093
▁sahitAH	-10.3097
▁ityetat	-10.3098
muKAH	-10.3098
▁ANgla	-10.3099
kzAra	-10.31
▁deS	-10.3104
▁azwAdaSa	-10.3107
▁jIvita	-10.3108
▁astram	-10.311
▁sidDaH	-10.3114
▁maNgala	-10.3119
rikA	-10.3122
▁viditvA	-10.3125
▁BfSa	-10.3129
▁lakzmaRa	-10.3131
vraRa	-10.3132
▁gurum	-10.3136
▁prApa	-10.3136
▁sundara	-10.3141
▁Suzka	-10.3141
▁rAmeRa	-10.315
vAri	-10.315
▁drutam	-10.3151
Siva	-10.3151
rT	-10.3154
▁mah	-10.3155
▁kAca	-10.3159
▁purARa	-10.3161
dara	-10.3164
▁koSa	-10.3166
vikramaH	-10.3167
izwa	-10.3172
▁yAH	-10.3172
▁kziti	-10.3175
ce	-10.3176
vasan	-10.3176
pU	-10.3179
raRe	-10.318
▁B	-10.3181
vin	-10.3184
▁Bakta	-10.3189
▁BUt	-10.3193
IyaH	-10.3194
▁viviDAH	-10.3198
▁bAzpa	-10.3199
▁sfzwi	-10.3206
▁cikitsA	-10.3206
▁sAtyakiH	-10.3207
vAdinaH	-10.3207
▁tasyAM	-10.3211
▁anDa	-10.3213
palam	-10.3217
yya	-10.3218
▁kulam	-10.3219
tana	-10.3221
▁asura	-10.3224
ananta	-10.3224
▁aNGri	-10.3225
▁smfti	-10.3228
ho	-10.3229
gulma	-10.323
▁svaBAva	-10.323
▁vicitra	-10.3232
▁tA	-10.3234
▁niDAya	-10.3234
▁pratyekam	-10.3234
▁mudrA	-10.3235
mokza	-10.3241
Sr	-10.3242
▁mudA	-10.3246
sye	-10.3249
uditam	-10.3249
▁KaRqa	-10.3249
varA	-10.3252
▁lokAnAm	-10.3254
tElam	-10.3254
vati	-10.3256
▁vimAna	-10.3257
darSanAt	-10.3259
▁mAse	-10.326
▁DftarAzwra	-10.3265
▁BuktvA	-10.3265
aneka	-10.3269
po	-10.3271
karoti	-10.328
▁muktA	-10.3281
arTAya	-10.3282
Ikftya	-10.3286
▁kAzWa	-10.3289
▁tisraH	-10.3289
▁aRu	-10.3291
vAh	-10.3292
▁balA	-10.3299
▁hantum	-10.3303
▁lakzaRa	-10.3305
▁hanyAt	-10.3308
ISaH	-10.3315
▁anyEH	-10.332
▁Bakzayet	-10.3321
▁pAla	-10.3321
rAva	-10.3322
▁kE	-10.3322
putram	-10.3324
NgA	-10.3324
▁SUnya	-10.3328
yatA	-10.3328
varzARi	-10.3332
▁anekAni	-10.3335
▁ityataH	-10.3335
▁rAzwrapati	-10.3339
▁sI	-10.3339
▁mahAdevaH	-10.3344
▁prApnuvanti	-10.3348
DAnya	-10.3351
▁caturTa	-10.3353
▁narADipa	-10.3356
▁svapne	-10.3358
tAmra	-10.336
▁dvitIyA	-10.3362
▁aSoka	-10.3363
uzRA	-10.3364
▁yu	-10.3366
▁nASa	-10.3369
BftAm	-10.3373
▁varR	-10.3377
Aditya	-10.338
mftyu	-10.3381
mAnaM	-10.3381
Dya	-10.3382
▁dAnava	-10.3382
▁ukta	-10.3383
mayI	-10.3385
nIla	-10.3386
rataH	-10.339
▁nAmaka	-10.3392
▁hatam	-10.3395
Bava	-10.3395
▁anva	-10.3401
anaGa	-10.3404
mar	-10.3407
nara	-10.3408
cyut	-10.3414
vftam	-10.3415
svAmI	-10.3418
aparam	-10.3419
▁vfttiH	-10.3423
▁avyakta	-10.3426
▁mUQa	-10.3426
pAH	-10.3428
sidDa	-10.3429
▁vayasi	-10.3433
▁devyAH	-10.3436
▁diSi	-10.3437
▁apekzayA	-10.3439
▁pakva	-10.3439
▁mahatI	-10.3442
pUrvakaM	-10.3443
▁svAtantrya	-10.3448
▁yudDaM	-10.3449
sTAn	-10.345
▁pARi	-10.3451
we	-10.3452
uraga	-10.3453
DArA	-10.3454
▁latA	-10.3457
▁muhUrtam	-10.3458
▁varjayet	-10.346
▁Sirasi	-10.3462
lO	-10.3465
guRAH	-10.3467
▁vfzRi	-10.3468
▁kftAH	-10.3468
▁boDa	-10.347
▁saptaDA	-10.3472
▁kartavyaH	-10.3475
▁muKe	-10.3476
sattvam	-10.3477
▁BAzya	-10.3481
▁Sloka	-10.3485
Rw	-10.3485
maye	-10.3486
vega	-10.3486
▁bravImi	-10.3488
▁kAcit	-10.3495
du	-10.3496
▁BrAtf	-10.35
▁ekena	-10.3501
vAkya	-10.3503
▁vftta	-10.3511
▁aSeza	-10.3512
purI	-10.3515
▁vfTA	-10.3517
priyaH	-10.3518
▁tulyam	-10.3521
▁jYeyaH	-10.3522
tyAH	-10.3522
▁ciCeda	-10.3526
▁marut	-10.3532
dAr	-10.354
kARqe	-10.354
ire	-10.3541
bAla	-10.3542
▁kAYcanam	-10.3547
▁yamunA	-10.3548
▁dattavAn	-10.3552
▁mft	-10.3552
Dy	-10.3553
saMskAra	-10.3554
▁vaNga	-10.3559
locanaH	-10.3561
inam	-10.3561
▁cakram	-10.3563
bara	-10.3564
tikta	-10.3565
▁saraH	-10.3572
▁uttamA	-10.3573
carita	-10.3578
▁vAk	-10.3579
BAzayA	-10.3584
SatEH	-10.3585
parvata	-10.3586
▁DArmika	-10.3587
duHK	-10.3589
As	-10.3589
▁DarA	-10.3589
▁vyAsa	-10.3591
▁rAkzasAH	-10.3593
Sat	-10.3594
▁hfta	-10.3601
▁dvitIyam	-10.3604
▁nAwaka	-10.3605
▁ganDam	-10.3606
▁asaM	-10.3606
▁beNga	-10.3607
▁DImataH	-10.3609
▁nyUna	-10.3611
gfh	-10.3612
prARa	-10.3614
saMskfta	-10.3614
▁mAMsam	-10.3614
lakza	-10.3615
▁surAH	-10.3615
▁ceti	-10.3617
▁kuSala	-10.3622
▁agnO	-10.3623
tattvam	-10.3625
▁gfhIta	-10.3627
▁etezAm	-10.3631
tIti	-10.3633
▁jitvA	-10.3634
Ajya	-10.3637
rezu	-10.3645
▁BUmeH	-10.3646
▁pfzWe	-10.3647
harza	-10.3648
▁pratI	-10.365
▁sanAtanaH	-10.3651
▁Saktim	-10.3651
jAla	-10.3654
manasaH	-10.3657
karAH	-10.366
BayAt	-10.366
▁gujarAtarAjyasy	-10.3663
▁praviveSa	-10.3664
▁kzaRa	-10.3666
▁kAmAn	-10.3675
▁mArge	-10.3675
guREH	-10.3675
▁girA	-10.3677
gamya	-10.3678
▁maDurA	-10.3681
yuktaM	-10.3681
▁Ke	-10.3686
▁raNga	-10.3686
▁bo	-10.3687
Daram	-10.3688
locanA	-10.3693
▁kri	-10.3695
▁Su	-10.3696
▁payasA	-10.3696
▁Badre	-10.3703
▁kftsnam	-10.3703
▁manyase	-10.3704
DarmaH	-10.3714
Gana	-10.3717
AKya	-10.3717
▁tatrEva	-10.372
amita	-10.3729
▁tAsu	-10.3731
▁bAlA	-10.3737
sADana	-10.374
▁manuzyAH	-10.3745
raR	-10.3746
tAram	-10.3748
syati	-10.3748
buD	-10.3755
▁BrAt	-10.3755
▁DAnya	-10.3755
devyAH	-10.3758
▁mftyum	-10.3758
▁SItam	-10.3769
viSva	-10.3771
yoge	-10.3772
uda	-10.3778
yuge	-10.3778
▁c	-10.378
▁vArtA	-10.3782
▁matta	-10.3784
izyate	-10.3785
▁BAryAm	-10.3787
▁utsfjya	-10.379
In	-10.3792
dAn	-10.3792
▁pratijYA	-10.3793
naraH	-10.3794
trI	-10.3799
▁drazwu	-10.3799
pakze	-10.3803
sUta	-10.3807
aBAvAt	-10.3808
▁Bartf	-10.3809
▁antarBavat	-10.381
pUr	-10.381
karaRe	-10.3815
▁matA	-10.3819
▁yajYe	-10.382
▁dakza	-10.382
mAne	-10.3821
▁mAn	-10.3824
▁asTi	-10.3824
caryA	-10.3827
▁Sivasya	-10.3829
▁prayogaH	-10.3832
gacCati	-10.3833
▁tAByAm	-10.3836
zI	-10.3837
BUt	-10.3838
mAlya	-10.3839
▁mArkaRqeyaH	-10.3841
ADi	-10.3841
▁mO	-10.3843
▁SApa	-10.3844
tasmin	-10.3845
DyAyasya	-10.3845
▁jIrRa	-10.3849
▁gUQa	-10.3854
▁kannaqa	-10.3854
▁SoRita	-10.3855
▁vidyamAnA	-10.3855
▁vIRA	-10.3856
▁sarvakAra	-10.3857
▁pAta	-10.3857
tAla	-10.3859
tame	-10.3864
aDipa	-10.3869
BUmi	-10.387
sUrya	-10.3871
▁bahuSas	-10.3878
▁saMvatsare	-10.388
▁balena	-10.3882
DUma	-10.3884
tAt	-10.3886
▁govinda	-10.3887
▁pustaka	-10.389
yava	-10.3891
▁vizRum	-10.3895
▁yamaH	-10.3896
▁pawa	-10.3897
▁pArvatI	-10.39
▁AvaSyakatA	-10.3902
dyutiH	-10.3902
viDa	-10.3903
bAhu	-10.3905
pur	-10.3912
hetuH	-10.3916
kAryaM	-10.3926
tamam	-10.3926
yuj	-10.3926
racanA	-10.3927
SEla	-10.3931
▁vivAhaH	-10.3933
▁vaD	-10.3935
▁saMhitAyAm	-10.3935
▁pad	-10.3936
sAram	-10.3937
▁leBe	-10.3937
▁vyaktam	-10.3937
▁saMs	-10.3947
▁ityAdInA	-10.3947
dvIpa	-10.3948
itena	-10.3948
▁sarvaM	-10.3952
cya	-10.3952
pradaH	-10.3953
▁catuH	-10.3954
▁haste	-10.3957
anala	-10.396
mAs	-10.3964
rUpAH	-10.3966
▁gAyatrI	-10.3966
izyati	-10.397
▁izwa	-10.3971
Uza	-10.3979
arSaH	-10.3983
▁paSUn	-10.3988
▁gOtamaH	-10.3992
▁prayayO	-10.3994
tAta	-10.3995
anyatra	-10.3997
▁balim	-10.3998
▁niyama	-10.4002
▁samaH	-10.4002
▁fgveda	-10.4004
yamAnam	-10.4004
mArge	-10.401
▁pfTvI	-10.4011
dya	-10.4013
stA	-10.4017
▁hate	-10.4019
▁padA	-10.402
▁Dik	-10.4022
▁agneH	-10.4025
▁SakyaH	-10.4027
▁itihAsa	-10.4035
vAt	-10.4036
ak	-10.4037
gaja	-10.4042
kzayam	-10.4043
▁vid	-10.4044
▁vilokya	-10.4048
▁BrAtfBiH	-10.4057
▁vAcaH	-10.4059
cetasaH	-10.4059
kAnta	-10.4061
kulam	-10.4063
▁etAm	-10.4077
▁mAriza	-10.4078
▁asyAM	-10.4081
deSaH	-10.4083
▁astra	-10.4087
▁sAhAyya	-10.4088
▁kI	-10.4089
▁ADunika	-10.409
balena	-10.4091
brAhmaR	-10.4098
▁samagra	-10.4103
praDAna	-10.4104
atA	-10.4105
▁paramAm	-10.4109
arjuna	-10.411
saha	-10.4111
kya	-10.4112
iyA	-10.4112
▁pretya	-10.4116
San	-10.4121
▁uttamaH	-10.4122
▁asyAm	-10.4123
▁vyakta	-10.4125
▁samAsa	-10.4131
▁BuNkte	-10.4136
▁adButa	-10.4143
▁kaTAH	-10.4143
▁sidDAH	-10.4144
▁maraRam	-10.4144
▁BadrA	-10.4145
kARqa	-10.415
vIryaH	-10.415
dUra	-10.4155
py	-10.416
idaM	-10.4162
viDaH	-10.4162
▁sItAm	-10.4162
granTezu	-10.4164
sneha	-10.4166
▁aDikA	-10.417
▁ArabDavAn	-10.417
▁sADya	-10.4176
tejaH	-10.4178
▁praveSa	-10.4178
iRI	-10.418
▁vAyoH	-10.4182
▁bindu	-10.4184
daS	-10.4187
varDanam	-10.4195
nya	-10.4195
▁Bakt	-10.4197
▁kaTAm	-10.4201
▁sampUjya	-10.4204
Qa	-10.4208
vAdaH	-10.4212
▁granT	-10.4213
mAtre	-10.4218
▁SaktaH	-10.4218
▁pAl	-10.4218
▁yajYam	-10.4225
▁kzaya	-10.4227
svarUpa	-10.4227
kAre	-10.4228
▁BaktiH	-10.4232
▁jAte	-10.4236
prakASa	-10.4236
kartf	-10.4243
▁mAnavAH	-10.4245
▁haret	-10.4252
▁Buvana	-10.4257
rya	-10.4257
saMsTA	-10.4259
▁ahi	-10.4261
kroDa	-10.4261
pade	-10.4262
sTita	-10.4262
▁dIyate	-10.4263
▁triMSat	-10.4264
rakz	-10.4272
▁SrImat	-10.4275
▁niDanam	-10.4276
gIta	-10.4277
▁ras	-10.4277
▁jAraye	-10.4278
rAtra	-10.4279
kumBa	-10.4281
tavyaH	-10.4282
yasi	-10.4284
▁BAvanA	-10.4285
karza	-10.429
▁pippalI	-10.4291
▁paSyet	-10.4292
▁pariRAma	-10.4293
▁paWan	-10.4294
▁ityasmin	-10.4297
AtmikA	-10.4298
▁sambadDam	-10.4298
▁niyata	-10.4302
zya	-10.4302
▁viMSati	-10.4302
lAla	-10.4306
▁svatantra	-10.4307
▁sveda	-10.4309
daSA	-10.4309
▁BartA	-10.431
▁AkASa	-10.4318
▁mahArAzwrarAjy	-10.4323
Sezam	-10.4324
SrezWaH	-10.4327
muni	-10.433
▁brahmARam	-10.4331
SAstram	-10.4331
▁mE	-10.4334
▁nAgam	-10.4337
▁zazwi	-10.4345
▁calaccitra	-10.4352
▁Suka	-10.4355
▁trElokya	-10.4356
vaDa	-10.4361
caritam	-10.4362
tyaH	-10.4367
▁BAti	-10.437
▁Sama	-10.4371
daD	-10.4373
▁lIlA	-10.4376
mAsa	-10.4381
pakzasya	-10.4384
▁aDikam	-10.4384
vAr	-10.4387
niyam	-10.4388
aMSu	-10.4391
mandirARi	-10.4393
viBAga	-10.4394
apahA	-10.4395
AdiH	-10.4402
▁janayati	-10.4402
senaH	-10.4403
▁tikta	-10.4407
mahodayaH	-10.4407
arc	-10.4409
raNga	-10.4412
▁kriyatAm	-10.4418
▁vasanta	-10.4419
anA	-10.442
▁trIn	-10.4422
carma	-10.4425
▁vasanti	-10.4426
cakre	-10.443
▁rati	-10.4431
▁samAH	-10.4433
karmARi	-10.4436
▁bfhaspatiH	-10.4437
▁daSA	-10.4442
▁aDyayanaM	-10.4444
uttarA	-10.4447
kArasya	-10.4448
▁Saknuvanti	-10.4449
▁BuvaH	-10.4451
rasA	-10.4456
liNg	-10.4457
RO	-10.4458
kUwa	-10.446
keSa	-10.4462
saBA	-10.4471
▁kftavatI	-10.4472
yAmaH	-10.4472
patim	-10.4475
▁anAdi	-10.4477
▁praDAnam	-10.4478
▁jaqa	-10.4482
AcAryaH	-10.4483
BAvam	-10.4483
▁dAru	-10.4489
tIre	-10.4492
OzaDa	-10.4496
▁prARAH	-10.4498
▁niboDa	-10.4507
jan	-10.4508
tIrTe	-10.4509
triBiH	-10.4514
▁SarAn	-10.4524
vfdDi	-10.4526
dIpa	-10.4528
rahitaH	-10.453
▁patati	-10.453
yuga	-10.4533
vAsaH	-10.4533
aDva	-10.4535
▁avasTA	-10.4538
▁rAGava	-10.4541
tti	-10.4548
▁niSitEH	-10.4554
Ti	-10.4554
sAhitya	-10.4554
piRq	-10.4559
▁sanDi	-10.456
▁maDunA	-10.4562
DarmA	-10.4562
paH	-10.4564
▁sarvajYa	-10.4564
jya	-10.4565
gan	-10.4568
adBiH	-10.4569
ASraya	-10.4571
anAt	-10.4574
ity	-10.458
gara	-10.4583
rTaM	-10.4589
jIv	-10.4589
▁saKI	-10.461
▁hE	-10.4611
▁ayacCat	-10.4612
tAvat	-10.4613
▁purARam	-10.4614
▁cintayan	-10.4617
▁caturTe	-10.4618
cala	-10.4619
▁suhfdaH	-10.4624
▁kAraRaM	-10.4626
ScA	-10.4636
Te	-10.4636
▁jIrRe	-10.4638
aNgI	-10.464
▁mahAtmAnaH	-10.4645
▁prItiH	-10.4648
Agatam	-10.465
▁varzam	-10.465
parva	-10.4651
AjYayA	-10.4654
▁tasyA	-10.4657
samudra	-10.4658
▁kzuD	-10.4659
SAstrasya	-10.466
ituM	-10.4661
▁dEvam	-10.4661
▁karmasu	-10.4662
pARqu	-10.4665
▁yogena	-10.4666
▁pARqavEH	-10.4671
sveda	-10.4673
▁lepayet	-10.4679
vare	-10.4679
▁pradakziRam	-10.4683
jarA	-10.4684
▁viSizwA	-10.4688
ArtaH	-10.469
▁mantram	-10.4691
rupa	-10.4692
ju	-10.4694
gAya	-10.4697
kzi	-10.47
▁puraskftya	-10.4704
▁jayet	-10.4708
▁jIvanaM	-10.4721
▁viroDa	-10.4724
▁itaH	-10.4729
▁budDim	-10.4731
hAr	-10.4733
▁eBiH	-10.4734
kaRWa	-10.4739
Y	-10.4743
reva	-10.4744
arha	-10.4745
karR	-10.4756
kart	-10.4756
darSane	-10.4757
▁aDy	-10.4757
sidD	-10.4762
▁varuRaH	-10.4762
▁rAjYI	-10.4763
Srut	-10.4765
▁asmad	-10.4768
▁AjYA	-10.4769
▁kAcid	-10.477
janaH	-10.4771
ugra	-10.4773
▁anyonya	-10.478
▁vaktu	-10.4782
▁cakzuzA	-10.4784
▁tAmram	-10.4786
keS	-10.4787
▁tapta	-10.4789
BAI	-10.4792
▁yAma	-10.4792
▁abruvan	-10.4798
sura	-10.4799
▁arTe	-10.48
svaBAva	-10.4801
▁tIkzRam	-10.4802
▁gu	-10.4803
▁yasyAH	-10.4806
vijYAn	-10.4808
▁kaRqU	-10.4809
▁Seza	-10.481
▁muneH	-10.4815
▁tuzwaH	-10.4818
sasya	-10.4819
rAjyam	-10.4821
ikAm	-10.4825
▁dAtum	-10.4825
raM	-10.4827
▁udaya	-10.4827
▁vIta	-10.4834
kzaRAt	-10.4837
▁SvAsa	-10.4839
▁kASI	-10.4848
pUrvakam	-10.485
▁sambanDaH	-10.485
atrEva	-10.4851
lamb	-10.4857
▁caRqa	-10.4861
▁eti	-10.4861
yantram	-10.4865
▁praBAva	-10.4867
▁guRaH	-10.487
▁vitta	-10.4871
▁SrIH	-10.4872
▁pARini	-10.4873
ime	-10.4875
▁vaDa	-10.4878
smfti	-10.4879
mARaH	-10.4881
▁SizyaH	-10.4884
▁dakziRam	-10.4886
ciram	-10.4886
amftam	-10.489
Eka	-10.489
kram	-10.4892
jagat	-10.4894
stamBa	-10.4897
KaRq	-10.4899
▁SaraRa	-10.4903
ruj	-10.4908
▁sarga	-10.4908
▁Suk	-10.4911
▁qi	-10.4914
▁kart	-10.4915
▁jahi	-10.4915
▁gar	-10.4917
▁rAgaH	-10.4919
▁laBet	-10.4919
Agama	-10.4929
▁paYcA	-10.493
InAM	-10.4933
saNga	-10.4934
▁prAyeRa	-10.4934
pARi	-10.4934
dru	-10.4936
vfkzaH	-10.4938
varzAnuguRa	-10.4938
suK	-10.4938
pitf	-10.494
bARa	-10.4942
gaRaH	-10.4945
▁svADyAya	-10.4946
pAl	-10.4946
▁raTaH	-10.4947
▁pAtra	-10.4952
patrARi	-10.4954
sId	-10.4956
▁kecit	-10.4959
aSru	-10.4962
AkftiH	-10.4964
▁svarUpa	-10.4966
▁SOcam	-10.4967
▁kfcCra	-10.4968
▁vedAn	-10.497
▁hatAH	-10.4971
uM	-10.4972
▁jawA	-10.4972
yuktena	-10.4975
lok	-10.4976
nakzatra	-10.4981
▁kAlasya	-10.4986
▁Bojanam	-10.4988
AkAram	-10.4988
▁pUjitaH	-10.4989
Aste	-10.4991
▁sTApayet	-10.5
▁mAyAm	-10.5002
kendra	-10.5002
▁BUyaH	-10.5003
▁striyam	-10.5004
▁japa	-10.5009
▁viveSa	-10.501
▁brAhmaRAnAm	-10.5011
▁janArdanaH	-10.5012
kopa	-10.5016
nimittam	-10.5026
dDa	-10.5026
mudrA	-10.503
SaNk	-10.503
▁pAWa	-10.5036
Alayam	-10.5036
akAH	-10.5038
▁apfcCat	-10.5039
akarot	-10.5039
▁guR	-10.5041
▁proktAH	-10.5044
▁ruci	-10.5045
▁paSyataH	-10.505
vizRu	-10.5052
dvAra	-10.5055
Sc	-10.5056
aBAve	-10.5059
lavaRa	-10.5062
DarA	-10.5062
▁rAvaRa	-10.5062
aSani	-10.5063
▁rukma	-10.5066
▁har	-10.5066
kzetram	-10.5067
▁nItvA	-10.5067
▁garBam	-10.5069
jAti	-10.5071
AmaH	-10.5071
▁yajYasya	-10.5075
matam	-10.508
▁nO	-10.5081
▁pItam	-10.5082
▁jyezWaH	-10.5083
▁veRu	-10.5088
kIrRa	-10.5089
bu	-10.5097
▁BrAtuH	-10.51
janam	-10.5101
▁amla	-10.5101
▁SanEH	-10.5102
KyA	-10.5103
▁cara	-10.5103
kAryARi	-10.5107
▁kumAr	-10.5108
patti	-10.511
▁kiMcana	-10.5112
Buja	-10.5113
▁sTala	-10.5119
▁gfDra	-10.512
dAru	-10.5123
▁pArTam	-10.5125
▁garBaH	-10.5128
jAtam	-10.5129
▁AramBaH	-10.5129
▁yadfcCayA	-10.5133
▁gati	-10.5133
▁mantreRa	-10.5134
mUrtiH	-10.5134
▁pAdayoH	-10.5135
▁diS	-10.5136
▁vahniH	-10.5136
kAraRAt	-10.5138
grahaRa	-10.5138
mAnasya	-10.5139
▁nagarI	-10.5142
sAraH	-10.5144
▁ahiMsA	-10.5148
▁BUmim	-10.515
gatim	-10.5153
▁icCasi	-10.5159
veza	-10.516
▁gOrI	-10.5161
akzaram	-10.5162
▁prAg	-10.5163
dvAram	-10.5166
▁granTasya	-10.5166
▁kurURA	-10.5167
▁prasidDaM	-10.5167
mAnasaH	-10.5168
▁Bavizyasi	-10.5168
▁unnata	-10.517
▁nivasanti	-10.517
▁azwA	-10.517
sUkt	-10.5172
sahasr	-10.5174
pan	-10.5174
udare	-10.5178
dIrGa	-10.5181
▁vizayAH	-10.5182
aruRa	-10.5184
st	-10.5187
asaMSayam	-10.5189
▁garBe	-10.5194
▁badDaH	-10.5195
saNKyA	-10.5201
samIpe	-10.5203
▁pAna	-10.5206
parAkramaH	-10.5206
▁viBinn	-10.5207
aNka	-10.5208
prasAdAt	-10.5209
▁mAza	-10.521
▁kriSatam	-10.5211
▁tizWanti	-10.5212
▁mattaH	-10.5215
▁Srama	-10.5216
▁vasan	-10.5216
catuzwayam	-10.5217
▁pArTivaH	-10.5221
▁niScita	-10.5231
▁Sarad	-10.5231
▁rakzA	-10.5232
SikzA	-10.5232
Dvaja	-10.5232
▁Kar	-10.5234
indram	-10.5236
▁aSru	-10.524
▁mahABAga	-10.5243
▁mahAtmAnam	-10.5244
vatA	-10.5246
▁toya	-10.5251
anyam	-10.5252
▁deSam	-10.5252
mba	-10.5259
BUtezu	-10.5261
▁tamavarzasya	-10.5261
▁mAra	-10.5262
mahodayasya	-10.5263
▁puwa	-10.5267
anIkam	-10.5267
jYe	-10.5268
▁trE	-10.527
▁kalpanA	-10.5277
▁pragfhya	-10.528
samanvitam	-10.5281
▁rasAyana	-10.5281
▁vijYAnam	-10.5284
yoni	-10.5286
▁aBya	-10.5293
▁caran	-10.5293
ABi	-10.5295
vft	-10.5297
▁praBfti	-10.5298
▁prAyas	-10.5298
▁ahani	-10.5299
▁Ahave	-10.5299
▁saMhitA	-10.53
patram	-10.5301
▁patyuH	-10.5303
▁saMni	-10.5306
▁kriyAH	-10.5307
syAmi	-10.5309
har	-10.5309
SfNg	-10.531
▁svAm	-10.5311
nizWA	-10.5311
jYAnaM	-10.5312
▁lo	-10.5314
viDA	-10.5318
▁cApi	-10.5318
▁upAs	-10.5319
Gfta	-10.5326
SrezWam	-10.5327
▁anyAni	-10.5328
dAsa	-10.5332
▁samarTaH	-10.5334
▁pUj	-10.5338
▁DA	-10.534
▁saMkrudDaH	-10.534
kzip	-10.5345
ike	-10.5347
banDaH	-10.5348
▁janEH	-10.5351
Ayata	-10.5351
GA	-10.5353
▁rasena	-10.5356
▁upayoga	-10.5359
▁prItyA	-10.536
vaDU	-10.5366
val	-10.5366
vaSam	-10.5367
okta	-10.5368
mAse	-10.5371
maNgala	-10.5372
▁vetti	-10.5372
yuktAni	-10.5376
▁nirmita	-10.5376
SIr	-10.5377
▁karmaRAm	-10.5379
padaM	-10.538
▁ekEka	-10.538
dyApi	-10.5382
wwa	-10.5383
▁SaNkara	-10.5384
▁tantra	-10.5385
▁Sete	-10.5385
kramaH	-10.539
▁saMSoDana	-10.539
▁yoni	-10.5392
▁pASa	-10.5394
RAH	-10.5394
▁Aditya	-10.5395
vaMS	-10.5398
▁yantra	-10.5399
rAjya	-10.54
icCA	-10.5405
▁dadAmi	-10.5408
▁Sloke	-10.541
indrAH	-10.5412
▁Aruhya	-10.5413
kArye	-10.5413
▁dehalI	-10.5414
asmAkam	-10.5415
vfttA	-10.5415
grAma	-10.5417
▁tattvataH	-10.5419
▁mandiram	-10.5422
▁BedaH	-10.5422
▁kopa	-10.5425
zwi	-10.5427
pARiH	-10.5429
opari	-10.5433
yAma	-10.5436
mUzA	-10.5437
hInaH	-10.5437
▁puzkara	-10.5437
pre	-10.5438
sattamaH	-10.5441
▁haviH	-10.5444
kzep	-10.5445
▁patitaH	-10.5447
▁raTena	-10.5449
▁dad	-10.545
akzam	-10.545
ganDarva	-10.5451
rAjam	-10.5453
▁grAhyam	-10.5454
liNgam	-10.5456
▁itara	-10.5456
▁tasTO	-10.5458
AyAntam	-10.5459
granTa	-10.5459
▁viSudDa	-10.546
▁smarati	-10.5461
yitA	-10.5464
▁siMh	-10.5467
sahasram	-10.5469
▁puRyA	-10.5469
▁praRaya	-10.547
vAp	-10.5472
▁viSvAmitraH	-10.5472
▁pakzi	-10.5474
▁gadAm	-10.5474
▁BittvA	-10.5476
sAmrAjyasya	-10.5479
akzara	-10.5482
▁vaDam	-10.5482
▁arjunasya	-10.5483
▁mahAdeva	-10.5484
puruz	-10.5487
Soza	-10.5487
▁paRqita	-10.5487
▁vizama	-10.5489
▁rasAyanam	-10.5489
▁kur	-10.5491
agram	-10.5493
rakzA	-10.5501
▁mune	-10.5501
▁etasyAH	-10.5503
▁pfTivyAH	-10.5503
▁kam	-10.5509
▁vistareRa	-10.5511
▁yaTAnyAyam	-10.5511
▁brahmacArI	-10.5515
▁sametya	-10.5518
▁kAya	-10.5518
vaMSasya	-10.5518
▁sadyaH	-10.5519
▁yaTAkramam	-10.5522
▁hasan	-10.5522
▁mUrti	-10.5522
BagavAn	-10.5524
Avasare	-10.5524
ran	-10.5529
lla	-10.5529
▁nihataH	-10.553
▁es	-10.5531
meGa	-10.5533
iNg	-10.5536
atI	-10.5538
▁Svas	-10.5541
▁pAr	-10.5543
▁mudga	-10.5544
▁lakzya	-10.5545
▁vI	-10.5545
▁uktaM	-10.5546
▁kenacid	-10.5547
fziH	-10.5547
▁BartAram	-10.5548
pal	-10.555
rASi	-10.555
▁sUryasya	-10.555
sita	-10.5552
▁kzatriyaH	-10.5555
▁li	-10.5561
anyEH	-10.5564
▁tasyE	-10.5565
▁smftiH	-10.5566
sambadDa	-10.5566
▁tawe	-10.5567
▁vikrama	-10.5568
▁uktA	-10.5568
yAti	-10.557
▁AcAryaH	-10.5571
▁kartf	-10.5571
▁prayatna	-10.5575
roDa	-10.5578
▁jyezWa	-10.5578
▁ruDira	-10.5578
grahaRam	-10.5579
▁vfttim	-10.558
▁BAsa	-10.5583
vajra	-10.5584
nEva	-10.5585
vikalpa	-10.5586
▁upAya	-10.5589
▁prAsAda	-10.5589
yAna	-10.559
▁ANglaBAzAyA	-10.559
▁etAdfS	-10.5601
▁nis	-10.5602
nE	-10.5602
tizWat	-10.5603
▁dAra	-10.5605
vezw	-10.5607
▁marma	-10.5607
ppa	-10.5608
▁keSavaH	-10.5609
▁utpadyate	-10.5611
raT	-10.5613
▁kAntA	-10.5614
▁ayoDyA	-10.5616
▁prayoga	-10.5616
SudDa	-10.5617
nATaH	-10.5618
uttare	-10.5619
▁pAram	-10.5619
▁jvaraH	-10.562
sampannaH	-10.5621
▁AraBya	-10.5622
▁parasya	-10.5624
BAve	-10.5625
qe	-10.5625
tAyAm	-10.5628
AByAM	-10.563
▁mfttikA	-10.5634
yizyAmi	-10.5635
nU	-10.5636
▁navam	-10.5638
▁fzIRAm	-10.5639
aNguli	-10.564
Acaret	-10.5641
banD	-10.5644
▁guYjA	-10.5647
▁nAwya	-10.565
▁granTi	-10.5651
▁dvAra	-10.5652
nityam	-10.5652
BAzAyA	-10.5653
tvasya	-10.5657
▁hiMs	-10.566
▁pUjAm	-10.5661
viSvavidyAlaya	-10.5663
▁prajYApAramitAm	-10.5664
▁ASraya	-10.5667
▁loBa	-10.5667
gra	-10.5667
yutaH	-10.5667
kftayaH	-10.5673
▁pAtre	-10.5675
▁prasidDa	-10.5678
cUrR	-10.5678
▁yukta	-10.5678
war	-10.5681
▁sAmAnyataH	-10.5684
gadA	-10.5685
▁sitA	-10.5686
▁SAsanam	-10.5686
▁suta	-10.5687
▁hutvA	-10.5691
SElyA	-10.5691
▁rocate	-10.5696
▁SaSa	-10.57
Nke	-10.5702
▁hfzwa	-10.5702
▁BAv	-10.5703
▁daRqam	-10.5706
pUrRA	-10.5706
▁gacCan	-10.5707
▁sE	-10.5709
▁sar	-10.5709
▁zazWe	-10.5711
▁niScitam	-10.5713
janya	-10.5714
zaR	-10.5718
▁yukti	-10.5718
▁SikzaRa	-10.572
Darme	-10.572
▁dehinAm	-10.5721
tyaj	-10.5725
▁pfTvIrAjasya	-10.5726
tarA	-10.5726
▁vijayaH	-10.5727
maRqal	-10.573
smi	-10.5732
bU	-10.5733
▁kArye	-10.5733
▁mAsasya	-10.5734
SaktyA	-10.5734
▁maDuraH	-10.5737
manda	-10.5738
▁BAratadeSe	-10.5739
PalaM	-10.5739
DAra	-10.5742
▁vAr	-10.5745
▁SAli	-10.5751
▁pras	-10.5751
ito	-10.5751
▁SrutiH	-10.5752
▁arjunam	-10.5754
▁mAhAtmyam	-10.5762
SIta	-10.5764
nASa	-10.5768
▁viveka	-10.5769
▁DiyA	-10.5771
▁tftIyA	-10.5772
Asa	-10.5773
▁kUwa	-10.5774
BAv	-10.5775
▁candana	-10.5775
Ardra	-10.5775
▁BImasenam	-10.5776
▁manu	-10.5776
▁gOH	-10.5778
▁Bavitum	-10.5779
naKa	-10.5781
sadfS	-10.5781
smft	-10.5781
izye	-10.5783
▁pUrRam	-10.5785
Asane	-10.5785
▁dInA	-10.5785
nusAraM	-10.5792
▁AsTitaH	-10.5792
sUtam	-10.5793
▁prakfteH	-10.5793
payet	-10.5796
AhAraH	-10.5796
sTitam	-10.5797
▁yAc	-10.5799
Dvani	-10.58
SatAni	-10.5801
ASramam	-10.5803
nIti	-10.5805
vIryam	-10.5806
miSra	-10.5807
▁Dvani	-10.5811
Ahave	-10.5812
▁kfzRena	-10.5815
▁sarala	-10.5816
▁avaSyam	-10.5817
rUpARi	-10.5817
▁jIvanasya	-10.5817
▁manuzy	-10.582
▁citram	-10.582
▁yujyate	-10.582
▁wIkA	-10.5822
dAnaM	-10.5824
arTAH	-10.5827
AkASa	-10.5828
▁Slok	-10.5829
Gawa	-10.5829
rAjA	-10.583
vedanA	-10.5832
grahaH	-10.5832
▁nikzipet	-10.5835
banDu	-10.5838
▁pre	-10.584
▁pakvam	-10.5844
rasya	-10.5847
▁gaRAH	-10.585
▁smaran	-10.5851
saNgam	-10.5855
gaNgA	-10.5858
varjitam	-10.5859
cU	-10.5859
▁em	-10.5862
▁naraka	-10.5863
tayaH	-10.5864
▁Sezam	-10.5867
▁kutra	-10.5872
viDam	-10.5872
▁sahA	-10.5873
Dan	-10.5874
▁kAnti	-10.5876
▁duryoDanam	-10.5879
▁putreRa	-10.5879
▁Satake	-10.5881
apahaH	-10.5881
nirmARa	-10.5883
▁kaTitaH	-10.5887
SatAbd	-10.5887
▁virAj	-10.5887
puRya	-10.589
apy	-10.589
▁amerikA	-10.5891
▁fziBiH	-10.5894
trayaH	-10.5894
▁pramAR	-10.5895
▁saNKyA	-10.5899
Ngam	-10.5899
▁prajAyate	-10.5902
▁DaraRI	-10.5906
▁gupta	-10.5908
▁mukti	-10.5915
▁suKI	-10.5918
saN	-10.5918
pattra	-10.5918
varjitaH	-10.592
▁pratiBA	-10.5921
▁uttaram	-10.5921
upetam	-10.5924
▁SvA	-10.5926
Danam	-10.5926
▁deSaH	-10.5926
anugraha	-10.5927
ikayA	-10.5928
bI	-10.5932
uBaya	-10.5932
▁bAl	-10.5933
sakt	-10.5934
mArgaH	-10.5935
▁kf	-10.5937
▁sarit	-10.5938
drava	-10.5942
keRa	-10.5943
▁hiMsA	-10.5943
samanvitaH	-10.5944
▁mAsam	-10.5945
▁visfjya	-10.5946
aha	-10.5947
▁vicintya	-10.5948
▁nArada	-10.5951
ASrayaH	-10.5951
▁sImA	-10.5955
Yj	-10.5955
DIyante	-10.5955
▁kera	-10.5961
ganDi	-10.5963
apA	-10.5969
spfzwa	-10.5973
mahodayena	-10.5975
▁prI	-10.5977
▁ajaH	-10.5978
Ada	-10.5981
▁BrAtaram	-10.5985
ara	-10.5986
ASca	-10.5988
kzata	-10.5988
lAn	-10.5992
dozam	-10.5993
yojanA	-10.5994
prApti	-10.5996
vAla	-10.5996
ndra	-10.6003
▁nAsA	-10.6003
▁dakzaH	-10.6004
daM	-10.6005
▁pratyakzam	-10.6006
▁dIpanam	-10.6009
▁ISvaram	-10.6009
muc	-10.6009
▁al	-10.601
▁mokzaH	-10.601
varyaH	-10.6013
karmaRaH	-10.6014
▁drORiH	-10.6016
▁matim	-10.6018
on	-10.6024
▁uddiSya	-10.6025
sf	-10.6025
▁ariMdama	-10.6026
▁kAsa	-10.6026
Avarta	-10.6032
▁nivAsa	-10.6037
veD	-10.6038
▁saptame	-10.6044
▁Bar	-10.6045
BUmiH	-10.6048
▁tUzRIm	-10.6049
pAdaH	-10.6049
▁tapasaH	-10.6052
▁militvA	-10.6052
ks	-10.6054
▁dApaye	-10.6054
▁asmE	-10.6056
▁gfh	-10.6061
jo	-10.6063
kAriRaH	-10.6065
vaSa	-10.6067
▁kIrti	-10.6067
▁rasasya	-10.6068
▁makara	-10.6073
▁kadA	-10.6073
▁vizayAn	-10.6073
▁durga	-10.6074
Goza	-10.6075
▁prasIda	-10.6076
▁bI	-10.6078
BUmO	-10.6079
▁atratya	-10.608
▁kawuH	-10.6082
▁kaT	-10.6083
▁SaktyA	-10.6084
▁vaRij	-10.6086
Sataka	-10.6087
▁yezu	-10.6087
▁gAH	-10.6087
▁yugapad	-10.6088
▁nyaset	-10.609
▁SyAmA	-10.6093
▁svIkftya	-10.6093
▁ri	-10.6093
▁nyasta	-10.6095
▁pE	-10.6097
▁praSAnta	-10.6098
▁mayUra	-10.6098
W	-10.6099
yogam	-10.61
▁parIkzA	-10.61
▁pravart	-10.6106
▁vAg	-10.6106
▁kfti	-10.6107
▁saMDyA	-10.6108
▁bilva	-10.6108
▁co	-10.6111
▁svI	-10.6113
▁prativarza	-10.6113
▁mantri	-10.6113
utpala	-10.6113
Sena	-10.6114
▁kartavya	-10.6115
mArkaRqeyaH	-10.6116
▁sanAtanam	-10.6118
aDy	-10.612
viDO	-10.6122
▁prAdAt	-10.6126
yasva	-10.6129
▁g	-10.613
▁j	-10.613
▁jAnu	-10.6131
lokaH	-10.6133
▁pO	-10.6133
▁pratidina	-10.6134
▁sarvAsu	-10.6135
▁pAtram	-10.6135
pakzi	-10.614
▁umA	-10.6142
tavAn	-10.6143
dInAM	-10.6145
puruzaH	-10.6145
ByAM	-10.6147
▁prakriyA	-10.6148
avaDi	-10.6148
▁kadalI	-10.6148
cu	-10.615
▁Sabdasya	-10.615
▁aBra	-10.615
padA	-10.6153
sidDiH	-10.6156
▁vfdDaH	-10.6157
▁liKitam	-10.616
▁drOpadI	-10.6162
▁puwe	-10.6162
kAyaH	-10.6162
▁BaveyuH	-10.6163
▁BI	-10.6163
▁dfS	-10.6164
▁kasyacit	-10.6165
▁vidyADara	-10.6168
▁hrIm	-10.617
▁pavana	-10.6176
BAvanA	-10.6176
▁paYcASat	-10.6177
▁kaTaya	-10.6178
matA	-10.6181
▁kElAsa	-10.6182
▁jyA	-10.6184
BaNga	-10.6185
cAr	-10.6188
sUkzma	-10.6191
▁jayaH	-10.6193
▁saMyukta	-10.6197
Ita	-10.6197
nar	-10.62
rUpe	-10.6201
▁samIkzya	-10.6204
dAyitvaM	-10.6204
er	-10.6209
▁dfzwavAn	-10.6211
lya	-10.6213
anv	-10.6215
rUpya	-10.6216
▁stamBa	-10.6218
vyAKyA	-10.6222
varz	-10.6223
▁SAntim	-10.6226
▁kzat	-10.6228
etAH	-10.623
▁puzpARi	-10.623
gfhya	-10.6233
tvAm	-10.6233
tv	-10.6233
putreRa	-10.6235
adButam	-10.6236
▁tyAga	-10.6237
skAnde	-10.6237
▁aparA	-10.6237
sev	-10.6237
▁BavatI	-10.6239
▁prekzya	-10.6241
vf	-10.6243
vahan	-10.6243
SIlaH	-10.6243
vAsI	-10.6247
sTitiH	-10.6248
▁meru	-10.6248
▁mArgam	-10.625
▁prah	-10.6251
▁tiktA	-10.6253
▁asa	-10.6256
wan	-10.6256
▁vaSe	-10.6257
▁samarTa	-10.6261
▁kfzRe	-10.6262
aBram	-10.6262
▁kul	-10.6263
▁sarvakAreRa	-10.6265
▁sEnDavam	-10.6266
ap	-10.6268
indrasya	-10.6268
▁KyAtam	-10.627
▁aDarma	-10.627
▁naKa	-10.6274
▁SrUyatAm	-10.6275
▁itTaM	-10.6275
▁mandire	-10.6276
▁suBadrA	-10.6279
AvalI	-10.6281
AjYA	-10.6283
▁dikzu	-10.6284
anDa	-10.6288
▁SAk	-10.629
cAru	-10.6293
mAtf	-10.6295
▁eke	-10.6295
SoPa	-10.6296
df	-10.6298
gfhIta	-10.6298
▁kU	-10.6301
▁dyOH	-10.6313
▁paramA	-10.6314
▁pro	-10.6314
▁purata	-10.6315
darSanA	-10.6316
rupeRa	-10.6316
deSam	-10.6316
jYEH	-10.6318
▁prAptavatI	-10.6318
▁manuja	-10.6323
vasA	-10.6325
ila	-10.6327
▁jayati	-10.6328
nArAyaRa	-10.6333
vis	-10.6333
▁maru	-10.6334
SiKA	-10.6335
▁bIj	-10.6337
▁vaDaH	-10.6337
mitr	-10.6338
nASanaH	-10.6342
▁SrAdDam	-10.6342
▁Salya	-10.6343
varga	-10.6345
fzaBaH	-10.6346
▁apAm	-10.6347
▁BUtam	-10.6348
pitA	-10.6348
duz	-10.6352
akzaH	-10.6353
mal	-10.6355
pradeSaH	-10.6358
budD	-10.6359
▁BrAtaraH	-10.636
sAma	-10.6362
astram	-10.6363
▁kftAni	-10.6363
grA	-10.6364
varAH	-10.6369
▁Sikz	-10.6371
▁ajA	-10.6374
▁DIraH	-10.6375
jYAta	-10.6378
fte	-10.638
yezAM	-10.6381
kare	-10.6381
vikAra	-10.6384
▁aBivAdya	-10.6387
wo	-10.6387
endra	-10.6388
toH	-10.6389
GAt	-10.639
▁tiTO	-10.6392
▁vaset	-10.6392
▁yayAtiH	-10.6393
pUra	-10.6394
▁saNga	-10.6395
sADanam	-10.6396
▁rajata	-10.64
ayitum	-10.6403
labDa	-10.6405
candana	-10.6407
▁sAmAjika	-10.6414
▁palam	-10.6414
IyAH	-10.6415
▁tadeva	-10.6418
guruH	-10.6422
▁saMvid	-10.6423
▁vistfta	-10.6423
▁pARqavam	-10.6426
sidDaye	-10.6427
▁DyAtvA	-10.6428
nATasya	-10.6428
▁kuryuH	-10.6428
vAsAH	-10.6431
kAlasya	-10.6433
ryA	-10.6435
▁mohAt	-10.6435
▁bruvan	-10.6435
▁Bagavate	-10.6435
▁pAtAla	-10.6437
▁Ama	-10.6437
ced	-10.6437
ir	-10.6437
▁niS	-10.6438
▁nIti	-10.6441
kuw	-10.6441
▁Sap	-10.6442
▁yakz	-10.6444
▁nizWA	-10.6445
SaNKa	-10.6445
uktena	-10.6447
▁vEdya	-10.6447
Ngu	-10.645
▁BAge	-10.6453
▁amI	-10.6454
▁puru	-10.6458
zyati	-10.6458
▁jan	-10.6459
syopari	-10.6461
druma	-10.6461
vidAm	-10.6463
kIrti	-10.6463
▁praSaMsA	-10.6466
RoH	-10.6469
▁nirIkzya	-10.647
▁samaBavat	-10.6474
▁guruRA	-10.6474
▁DyAyan	-10.6476
▁D	-10.6476
▁rAg	-10.6481
▁rUpARi	-10.6482
IH	-10.6482
rApi	-10.6482
▁BAratadeSasya	-10.6483
mune	-10.6484
▁SAstr	-10.6485
▁pradattam	-10.6485
vfttaH	-10.649
niScay	-10.649
ave	-10.6491
Bid	-10.6492
pAlaH	-10.6494
vfdDa	-10.6494
▁pramuKAH	-10.6496
reKA	-10.6498
kArAH	-10.6499
▁etO	-10.6501
vAha	-10.6504
sEnik	-10.6507
▁yuktAH	-10.6509
▁saMsTApya	-10.6511
tantr	-10.6514
▁kazAyam	-10.6515
▁pravi	-10.6519
varDan	-10.652
▁ce	-10.652
▁AgatA	-10.6521
▁viSvA	-10.6523
nAwaka	-10.6523
ntar	-10.6524
▁dvIp	-10.6524
▁budDimAn	-10.6525
caran	-10.6526
▁p	-10.653
mahI	-10.6531
▁SaSi	-10.6537
▁yaTArTa	-10.654
jYAya	-10.654
saMhitA	-10.6542
saMD	-10.6542
sarpa	-10.6542
▁DanvantariH	-10.6543
▁kilomIwaramit	-10.6544
SIl	-10.6545
kAmA	-10.6548
▁varAha	-10.6549
aBya	-10.6549
yajY	-10.6552
▁salila	-10.6554
jalam	-10.6554
▁vipula	-10.6554
SoRita	-10.6555
▁aruRa	-10.6556
granTe	-10.6556
▁loma	-10.6556
rAgaH	-10.6557
▁pAka	-10.6557
eke	-10.6557
aSma	-10.6558
▁kumAraH	-10.656
▁viDA	-10.6568
pAtram	-10.6569
BedAH	-10.657
viDAnam	-10.6572
▁prAtaH	-10.6573
▁nimna	-10.6574
raRam	-10.6574
▁prayatnena	-10.6579
▁vinDya	-10.6582
▁hanta	-10.6586
▁bar	-10.6587
▁darSayati	-10.6589
▁tAram	-10.6589
veDa	-10.6591
▁kfpA	-10.6592
tIm	-10.6595
riyA	-10.6599
kzaR	-10.66
▁pratyA	-10.66
▁boD	-10.6605
▁SvetA	-10.6605
kawa	-10.6606
▁SAlA	-10.6607
eSvaraH	-10.6608
▁dAsa	-10.6609
▁samayaH	-10.6611
▁vipulam	-10.6612
▁sirA	-10.6613
vyam	-10.6615
▁AnIya	-10.6616
▁dfSya	-10.662
cikitsA	-10.6621
Sukra	-10.6623
▁parEH	-10.6623
▁prajApateH	-10.6624
antA	-10.6625
▁saMskAra	-10.6625
▁amita	-10.6626
dAs	-10.6629
▁grAmaH	-10.663
ISvarAH	-10.663
▁Ca	-10.6633
▁kuSalam	-10.6634
▁rUkza	-10.6635
▁brahmaRi	-10.6638
ottara	-10.6638
▁lavaRam	-10.6639
IkzaRA	-10.664
Iti	-10.6643
▁AkramaRa	-10.6643
saMBavaH	-10.6645
yog	-10.6646
uzRaH	-10.6647
Slez	-10.6649
▁yO	-10.6651
dattaH	-10.6654
Darmam	-10.6654
▁pOra	-10.6656
parAyaRaH	-10.6656
sidDAnta	-10.666
▁DftvA	-10.666
▁ekASIti	-10.666
▁varRanam	-10.6661
▁brAhmaREH	-10.6661
▁praSasyate	-10.6666
apara	-10.667
viDAna	-10.667
▁pUjya	-10.667
▁vartma	-10.6673
▁sugrIvaH	-10.6675
Bayam	-10.6677
dvija	-10.6678
▁v	-10.6679
▁meDA	-10.6679
rapi	-10.6681
▁SezaH	-10.6684
▁gamBIra	-10.6685
▁kalO	-10.6687
▁AgatAH	-10.669
▁praDAn	-10.6691
jAt	-10.6691
▁vastuta	-10.6692
paTe	-10.6692
▁kumArI	-10.6693
▁viSvAsaH	-10.6693
▁raTe	-10.6693
▁purAtana	-10.6697
car	-10.6699
▁CittvA	-10.6699
paS	-10.6702
varR	-10.6704
▁aparam	-10.6708
antikam	-10.6708
nIyaH	-10.6709
ANga	-10.6711
▁caturaH	-10.6714
▁gaR	-10.6715
tizWati	-10.6716
ASA	-10.6718
▁SUl	-10.672
▁bOdDa	-10.672
pramARam	-10.6721
▁raktA	-10.6722
▁pittam	-10.6723
▁anaGa	-10.6726
▁kurvantaH	-10.6726
yuktasya	-10.6729
▁Dvaja	-10.673
▁retaH	-10.6732
fzaBAH	-10.6732
viSizwa	-10.6732
veS	-10.6732
aparaH	-10.6733
▁Sra	-10.6734
aSca	-10.6737
toza	-10.6738
DAma	-10.6739
▁prAviSat	-10.6739
kIrt	-10.6745
gO	-10.6746
▁Goza	-10.6746
▁baBO	-10.6747
▁pAt	-10.6748
▁yojana	-10.6749
cAra	-10.6749
▁dakziRAm	-10.6756
▁mahataH	-10.6757
varDanaH	-10.6761
▁BAvam	-10.6765
▁vAyunA	-10.6766
▁kftaM	-10.6766
▁akzara	-10.6767
Darm	-10.6767
▁jYeyA	-10.6771
gav	-10.6771
waka	-10.6773
kazAya	-10.6776
▁gfhRAti	-10.6776
vala	-10.6778
guRe	-10.6779
▁rasA	-10.678
jale	-10.6783
vicAra	-10.6788
bal	-10.6788
▁vizayezu	-10.679
▁mAkzikam	-10.6793
ps	-10.6793
▁martya	-10.6796
dfzwi	-10.6799
udaya	-10.68
ISam	-10.6803
▁DUpa	-10.6804
▁nizka	-10.6806
▁hAr	-10.6806
▁aDyAtma	-10.6807
kusuma	-10.6807
dagD	-10.6807
GAta	-10.681
▁ArabDA	-10.681
▁pARinA	-10.6811
▁ananya	-10.6812
▁Bog	-10.6813
▁sTa	-10.6813
▁pratApa	-10.6814
ajina	-10.6814
▁rAmAyaRa	-10.6822
▁Bojana	-10.6822
mADyam	-10.6824
▁du	-10.6826
yudDa	-10.6826
▁putrARAm	-10.6832
pAra	-10.6834
anayA	-10.6842
vAyu	-10.6844
▁jananI	-10.6849
▁sahadevaH	-10.685
paTa	-10.6852
▁lohita	-10.6853
apaSyat	-10.6853
▁to	-10.6853
aNganA	-10.6853
lepa	-10.6854
▁kanduka	-10.6856
▁darSa	-10.6857
▁vIram	-10.6857
▁lakzmIH	-10.6859
▁SAstram	-10.686
il	-10.6862
etAn	-10.6863
▁dAsI	-10.6864
▁prayacCati	-10.6865
▁vega	-10.6866
AMsi	-10.6866
▁fdDi	-10.6867
rasasya	-10.6869
sana	-10.6871
lin	-10.6872
▁druta	-10.6873
vinikzipet	-10.6873
kuryAt	-10.6873
laGu	-10.6875
RAya	-10.6875
tvAd	-10.6878
tawe	-10.6878
▁hAsa	-10.688
Sizw	-10.688
▁sADanA	-10.6881
▁prasidDAH	-10.6883
▁gfhaM	-10.6884
ityAdizu	-10.6884
nfpa	-10.6885
maDura	-10.6885
Aharet	-10.689
▁niyam	-10.689
tayoH	-10.6891
rudra	-10.6893
kul	-10.6894
▁sTitasya	-10.6898
▁prAYjaliH	-10.6899
▁buD	-10.6901
sarg	-10.6905
aYjana	-10.6907
▁U	-10.6908
▁DarmarAjaH	-10.691
▁sADana	-10.6911
ojasaH	-10.6913
▁stamB	-10.6913
vratAH	-10.6913
BAzAyAH	-10.6914
yamAnAH	-10.6916
▁aDikaH	-10.6917
▁saptaBiH	-10.6919
▁kampa	-10.6921
▁aSvameDa	-10.6923
rujA	-10.6923
▁ArabDam	-10.6925
zwam	-10.6926
RyA	-10.6929
prekz	-10.693
▁Baga	-10.693
▁le	-10.6933
▁satata	-10.6934
▁prakftim	-10.6934
pfzWa	-10.6934
▁maDyam	-10.6934
▁devakI	-10.6938
tanayA	-10.6939
▁nyavedayat	-10.6939
▁naSyati	-10.6943
▁lIlayA	-10.6944
NgI	-10.6945
rat	-10.6945
antarA	-10.6946
▁avidyA	-10.695
gaRAn	-10.6953
hAs	-10.6953
tUrRam	-10.6953
▁dattaH	-10.6954
gaman	-10.6955
varzam	-10.6964
▁nakzatra	-10.6969
anuttamam	-10.697
▁indrasya	-10.697
▁mArgaH	-10.6973
▁vAda	-10.6975
▁gopa	-10.6977
▁jagAda	-10.698
▁puMsAm	-10.698
mAMs	-10.698
▁Sr	-10.6981
▁patitam	-10.6981
▁jinAlay	-10.6984
vatIm	-10.6986
BujaH	-10.6986
▁SrAdDa	-10.6987
Adyam	-10.6989
▁dev	-10.6989
▁sADakaH	-10.699
Av	-10.6991
▁nandi	-10.6992
▁sarveByaH	-10.6996
▁vasA	-10.6998
▁DArA	-10.7
meha	-10.7002
▁GawanA	-10.7005
▁nirmARa	-10.7006
▁udAra	-10.7006
▁sUkzmA	-10.7007
purA	-10.7008
izyanti	-10.7009
▁SAntiH	-10.701
▁maraRa	-10.701
yantu	-10.7011
▁Avantya	-10.702
▁sADavaH	-10.702
varEH	-10.7024
▁etA	-10.7027
kzepa	-10.7028
▁anyam	-10.7028
aRam	-10.7028
▁praRItA	-10.7028
▁drav	-10.7031
vedya	-10.7037
marda	-10.704
▁satyena	-10.7044
asta	-10.7045
▁jAnanti	-10.7046
badD	-10.7047
▁sTale	-10.7047
▁ratnAni	-10.7047
▁pAtu	-10.7049
karmasu	-10.7049
sTAnAni	-10.7051
▁duH	-10.7053
Atape	-10.7053
▁dvAByAm	-10.7055
▁aparaH	-10.7055
▁DyAnam	-10.7055
▁pUr	-10.7059
▁cUrRa	-10.7061
▁rohiRI	-10.7061
▁anuttamam	-10.7062
sadfSa	-10.7066
▁netre	-10.7066
saNgrah	-10.7067
be	-10.707
ratnam	-10.707
▁viviDAn	-10.7071
▁pradeSaH	-10.7075
tfzRA	-10.7081
▁dagDa	-10.7081
▁drAkzA	-10.7081
guRA	-10.7082
▁SUlam	-10.7083
antike	-10.7083
▁kfpaH	-10.709
▁kOravya	-10.709
▁paTyam	-10.7091
yukte	-10.7093
pUj	-10.7094
lasya	-10.7095
lakzmI	-10.7096
▁tapo	-10.7096
kzayaH	-10.7096
OzaDam	-10.7097
▁kIrtiH	-10.7103
Saya	-10.7107
zeRa	-10.7108
▁DmAtam	-10.7111
ASrayam	-10.7113
▁ratiH	-10.7113
tyAga	-10.7115
▁suvarRam	-10.7115
▁kApi	-10.7116
▁hI	-10.7116
dAt	-10.7118
gacCat	-10.7119
▁vas	-10.712
▁DImatA	-10.7121
SAli	-10.7125
durga	-10.7126
ind	-10.7127
RRa	-10.7128
▁gop	-10.7128
CAyA	-10.7128
mAyA	-10.7131
rE	-10.7134
▁tyAgaH	-10.7136
vind	-10.7137
AtmAnaH	-10.7139
roh	-10.7139
etO	-10.7141
▁pitAmaham	-10.7142
▁pUjayitvA	-10.7144
cakram	-10.7148
▁gopAla	-10.7151
▁vahati	-10.7153
▁sAMKya	-10.7157
▁pUrRA	-10.7158
sAn	-10.7162
▁mUrtiH	-10.7162
Yjana	-10.7162
▁in	-10.7166
▁hfzwaH	-10.7167
▁AKyA	-10.7169
muKya	-10.717
▁vart	-10.717
AcAryasya	-10.7172
▁DruvaH	-10.7176
▁Acaret	-10.7176
co	-10.7177
kzam	-10.7179
vO	-10.7179
▁tyaja	-10.718
mantri	-10.7182
▁vidyamAnaH	-10.7182
mArut	-10.7182
▁jAla	-10.7184
hya	-10.7188
▁nihatya	-10.7188
▁vawa	-10.7188
▁BAzitam	-10.719
▁kfpayA	-10.7191
giriH	-10.7191
▁laNkA	-10.7192
mAza	-10.7193
koSa	-10.7193
amlam	-10.7193
▁kAntam	-10.7194
▁sidD	-10.7194
▁yaT	-10.7195
tanu	-10.7197
▁dAtu	-10.7198
▁paRqitaH	-10.72
tavyA	-10.7202
sAM	-10.7203
▁nirA	-10.7204
▁jyezWA	-10.7207
▁Sar	-10.7213
ikzu	-10.7216
▁mEtreya	-10.7216
puwam	-10.7216
moda	-10.7218
▁sTAvara	-10.7221
▁aYjasA	-10.7225
qo	-10.7227
▁SiSu	-10.7227
dAnava	-10.7228
vftaH	-10.7229
▁Bajate	-10.7239
▁vyava	-10.7239
▁mAruta	-10.7242
▁devA	-10.7244
mAr	-10.7246
▁Bikzu	-10.7246
▁citrA	-10.7248
muhur	-10.7248
vipAka	-10.7251
▁skanda	-10.7252
▁BavaH	-10.7252
▁SAriputra	-10.7252
▁BAgaM	-10.7252
▁sTAnAni	-10.7255
prAptiH	-10.7257
▁prasannaH	-10.7258
▁prItim	-10.7259
cca	-10.726
▁aSma	-10.726
karaRaM	-10.7262
▁jagad	-10.7262
vAkyam	-10.7265
▁mahIpatiH	-10.7265
lokasya	-10.7266
▁SaSvat	-10.7268
▁jYAtuM	-10.7268
▁ambu	-10.7269
sampannA	-10.7269
▁vakzye	-10.727
▁AsInam	-10.7275
▁sEnDava	-10.7276
vidDa	-10.7277
itavatI	-10.7277
▁varta	-10.7278
sADya	-10.728
▁BItaH	-10.728
▁sOra	-10.7281
▁darSayan	-10.7283
▁kusuma	-10.7287
▁ASritya	-10.7288
▁vinASa	-10.7289
dAnena	-10.729
vacana	-10.7291
saMGAta	-10.7293
sv	-10.7294
SirAH	-10.7298
▁rAvaRasya	-10.7299
BavaH	-10.7302
▁patanti	-10.7302
ndu	-10.7302
hate	-10.7303
puzpA	-10.7303
varRAH	-10.7303
lakzaRaH	-10.7305
putrI	-10.7307
▁kaMcid	-10.731
▁vEdehI	-10.731
apadyata	-10.731
ns	-10.7313
▁devyA	-10.7315
▁pravfttiH	-10.7315
▁jambIra	-10.7316
sT	-10.7317
paTam	-10.7318
▁nayana	-10.7318
Atmane	-10.7319
▁ek	-10.7323
ASritya	-10.7325
▁utpatti	-10.733
▁nOkA	-10.733
Akfti	-10.733
▁snehaH	-10.7331
▁DAtrI	-10.7333
▁aNgam	-10.7333
rik	-10.7337
upapadyate	-10.7343
vartI	-10.7346
▁ekatra	-10.7346
nIm	-10.7347
▁rAvaRam	-10.7348
sAt	-10.7349
puwet	-10.7349
▁apra	-10.7352
ahi	-10.7352
vit	-10.7353
izyAmi	-10.7354
▁pravahati	-10.7354
Ahva	-10.7354
kumAra	-10.7355
paRqit	-10.7356
samAna	-10.7356
hIna	-10.7356
▁kAl	-10.7359
tejas	-10.7363
▁rAtri	-10.7366
suKam	-10.7372
▁prayatnataH	-10.7372
▁kAlI	-10.7374
▁anantara	-10.7375
muKy	-10.7377
vargaH	-10.7377
harA	-10.7377
locana	-10.7378
▁muktvA	-10.7379
mata	-10.738
▁DAtA	-10.738
▁rataH	-10.7381
▁tadanu	-10.7382
vEH	-10.7384
rUpasya	-10.7387
▁rUkzam	-10.7387
hastaH	-10.7389
cintA	-10.7391
▁BavituM	-10.7394
▁tanum	-10.7394
▁gAnDI	-10.7395
▁puzwi	-10.7395
▁aravinda	-10.7395
nAT	-10.7395
▁gOrava	-10.7395
▁kuravaH	-10.7396
▁BAgAH	-10.7396
yeRa	-10.74
haM	-10.7405
▁SalyaH	-10.7405
▁pAp	-10.7406
Pi	-10.7406
▁jo	-10.7407
▁dvandva	-10.7408
lakzaRA	-10.7409
Atmajam	-10.7409
▁cala	-10.7409
▁Acarya	-10.741
▁liKita	-10.741
▁SakuniH	-10.7411
mUlA	-10.7412
ny	-10.7413
▁kftsna	-10.7414
Antara	-10.7416
yojana	-10.7417
saMSray	-10.742
tIr	-10.7421
budDa	-10.7423
idAnIm	-10.7423
pratimA	-10.7426
fze	-10.7426
▁ityAdiBiH	-10.7427
▁vraR	-10.7427
ApnuyAt	-10.7431
pIWa	-10.7432
▁kroDaH	-10.7433
purIza	-10.7434
▁praRipatya	-10.7436
epi	-10.7437
▁sutA	-10.7438
▁uBe	-10.7438
yantre	-10.7438
▁mitram	-10.7439
parivAr	-10.744
▁rakzasAm	-10.7441
AsAdya	-10.7444
Ceda	-10.7447
rUpiRI	-10.7448
▁sahaja	-10.745
▁sAkzi	-10.7451
DvaMsa	-10.7457
gamane	-10.7458
SAnti	-10.7459
trika	-10.7462
snigDa	-10.7465
vahni	-10.7467
▁vAsava	-10.7468
upamaH	-10.7469
▁boDi	-10.7471
vena	-10.7472
uj	-10.7474
krame	-10.7476
boD	-10.7479
noH	-10.7481
▁vijYeyaH	-10.7483
▁vyAGra	-10.7483
▁SayyA	-10.7486
sattamAH	-10.7487
▁Se	-10.7488
▁nimitta	-10.7492
▁avyaktam	-10.7495
citam	-10.7495
▁BAs	-10.7496
▁kzOdra	-10.7498
▁h	-10.7498
▁kartavyA	-10.7498
vartate	-10.7498
udyam	-10.75
▁BAvyam	-10.7502
▁harati	-10.7503
▁putrO	-10.7506
▁jalasya	-10.7506
▁siMhaH	-10.7506
▁samasyA	-10.7509
▁kuwumba	-10.751
▁mardyam	-10.751
vinASa	-10.7511
▁dviguRam	-10.7511
▁arca	-10.7517
▁durlaBam	-10.7517
bindu	-10.7519
▁f	-10.7519
kAram	-10.752
▁snA	-10.7521
TAH	-10.7521
▁BuYjIta	-10.7522
▁SaNkaraH	-10.7522
▁kzitO	-10.7522
▁antArAzwriya	-10.7524
lU	-10.7525
▁kupitaH	-10.7525
▁nakulaH	-10.7525
avya	-10.753
▁brAhmI	-10.7533
akzI	-10.7534
praBaH	-10.7538
dozaH	-10.7538
paramparA	-10.754
▁vadet	-10.7542
▁miSra	-10.7543
vidy	-10.7544
hInam	-10.7545
▁daRq	-10.7546
utpatti	-10.7548
cUrRayet	-10.755
▁dUrAt	-10.7551
tArA	-10.7553
▁nAgAH	-10.7555
guhA	-10.7556
mAMsam	-10.7557
ozWa	-10.7561
maYjarI	-10.7562
vizayaka	-10.7565
paw	-10.7565
SiKara	-10.7565
vinASanam	-10.7566
▁tIre	-10.7569
AyuDaH	-10.7569
▁kiMca	-10.7572
Bavam	-10.7573
▁Acaranti	-10.7574
moh	-10.7575
in	-10.7576
▁sanDyA	-10.7578
BftaH	-10.7579
sTite	-10.7579
tizWan	-10.758
▁guwikA	-10.7582
sadasy	-10.7584
staTA	-10.7585
▁vit	-10.7585
▁vakra	-10.7586
sAhasryA	-10.7586
sidDam	-10.7586
yeyuH	-10.759
▁rud	-10.7593
▁pAvakaH	-10.7593
▁ana	-10.7593
gaR	-10.7595
Asi	-10.7596
▁sAyam	-10.7604
ikI	-10.7605
▁Izat	-10.7605
▁kzatriyAH	-10.7607
▁nfpatiH	-10.7608
adri	-10.7609
▁Baja	-10.7609
▁pramadA	-10.7611
▁utpAda	-10.7612
varcas	-10.7612
Ca	-10.7616
▁malayA	-10.7617
tIkzREH	-10.7617
ini	-10.7618
purARe	-10.7623
▁juhuyAt	-10.7626
▁satyA	-10.7627
▁Bajet	-10.7627
vAhan	-10.7628
caret	-10.7628
▁vacA	-10.7629
▁AgacCati	-10.7631
▁Bakz	-10.7633
▁parAn	-10.7634
soma	-10.7634
▁kol	-10.7635
▁gfhya	-10.7636
aSeza	-10.7636
▁asfjat	-10.7639
▁akfta	-10.7639
▁DarmAn	-10.764
yuD	-10.7641
Sabdasya	-10.7646
Atapa	-10.7649
kilbiz	-10.765
maRqapa	-10.765
▁revAKaRqe	-10.7651
anvitAH	-10.7651
▁nfpam	-10.7652
▁vfdDiH	-10.7654
▁pUti	-10.7655
▁laB	-10.7657
▁pavitram	-10.7658
▁brahmacaryam	-10.7658
▁cetaH	-10.7658
saMskft	-10.7659
vfttyA	-10.7665
jihvA	-10.7665
▁dfzwiH	-10.7666
dO	-10.7667
viDAH	-10.767
dev	-10.7673
BedAt	-10.7675
AramBa	-10.7678
▁sOndarya	-10.7679
▁svarge	-10.7682
piRqa	-10.7682
▁viDim	-10.7683
rAg	-10.7685
▁icCanti	-10.7685
pfTak	-10.7686
▁ArTika	-10.7688
▁suhft	-10.7689
astam	-10.7689
▁imAH	-10.7689
▁kIrtim	-10.769
mAra	-10.769
BAgena	-10.7691
▁sAmpratam	-10.7699
layA	-10.7699
▁puzya	-10.7699
▁ajita	-10.7702
▁dala	-10.7703
DikA	-10.7703
▁mene	-10.7705
▁Bave	-10.7705
jah	-10.7706
▁viSez	-10.7706
kfti	-10.7707
▁karaRIyaH	-10.7711
wikA	-10.7711
▁deveS	-10.7712
▁BavatAm	-10.7714
▁Soza	-10.7714
▁mEsUru	-10.7721
prayoga	-10.7721
Boj	-10.7724
mAtraH	-10.7726
▁vasuDA	-10.7729
▁Bavya	-10.7729
▁dehaH	-10.7729
yEva	-10.7729
▁rucira	-10.7729
sUtr	-10.7735
rASiH	-10.7735
▁Bftya	-10.7737
▁karhicit	-10.7738
▁gaRita	-10.7738
muhuH	-10.7739
▁parRa	-10.774
▁vartamAna	-10.7742
uktAni	-10.7742
▁DIH	-10.7742
▁apsu	-10.7743
▁SfNgAra	-10.7744
▁kanda	-10.7745
▁svalpa	-10.7745
▁svakIya	-10.7747
▁mahizI	-10.7747
Dika	-10.7747
nAn	-10.7748
▁yoginAm	-10.7749
homa	-10.775
▁dvArA	-10.7751
bali	-10.7752
▁ara	-10.7754
nagarI	-10.7754
▁DfzwadyumnaH	-10.7754
▁svayameva	-10.7755
tapta	-10.7756
▁divyAni	-10.7757
▁moca	-10.7757
ABA	-10.7758
▁nala	-10.7759
▁prAjYaH	-10.776
▁fc	-10.7762
smAt	-10.7762
▁dfk	-10.7768
▁mantraH	-10.7769
▁patitA	-10.7769
SAsana	-10.7772
vraj	-10.7773
▁rogAH	-10.7775
▁parameSvaraH	-10.7775
pUrvA	-10.7776
▁AtmAna	-10.7781
▁ganDarvAH	-10.7784
▁sah	-10.7785
aBiDA	-10.7788
▁viD	-10.7789
▁pfcCati	-10.779
mARam	-10.7791
▁rudram	-10.7791
▁prARinAm	-10.7791
▁smita	-10.7791
AyA	-10.7796
kzaRa	-10.7797
▁devAlay	-10.7798
hanti	-10.7799
▁vivAh	-10.7801
▁nivftta	-10.7802
pOruzam	-10.7804
Darmasya	-10.7805
▁SoDa	-10.7806
karz	-10.7807
▁jIvane	-10.7809
veDI	-10.7809
▁gamizyAmi	-10.7812
cid	-10.7814
rAGav	-10.7815
▁BAratIyA	-10.7816
▁nAyaka	-10.7816
Salya	-10.7818
▁SaNK	-10.7819
BAryA	-10.7819
▁medaH	-10.782
SarmA	-10.782
▁raj	-10.7825
▁Sabd	-10.7826
raTAn	-10.7828
▁bahir	-10.7828
▁divyA	-10.7829
▁karaRa	-10.783
sTApan	-10.7831
▁BaginI	-10.7833
▁sEnikAH	-10.7833
▁Bojayet	-10.7834
▁pAyayet	-10.7835
▁hayAn	-10.7835
▁vfdDi	-10.7835
nABa	-10.7836
sAri	-10.7838
▁vAtAvaraRa	-10.7839
▁ge	-10.7842
lakz	-10.7842
rUpI	-10.7842
patan	-10.7846
▁buDEH	-10.7847
▁divasa	-10.7849
▁parivartana	-10.785
dakziRa	-10.785
▁leK	-10.7851
▁pat	-10.7851
▁ju	-10.7851
▁tridoza	-10.7853
▁DanaMjayam	-10.7854
ake	-10.7859
▁vARijya	-10.7862
Iritam	-10.7864
kurvan	-10.7864
pASa	-10.7865
▁tftIyam	-10.7868
sIt	-10.7869
dviz	-10.7873
▁tasmAd	-10.7874
▁prARinaH	-10.7876
parigrah	-10.7876
▁ekAnta	-10.7877
▁EtihAsika	-10.7879
▁krIqan	-10.7879
dagDa	-10.788
▁AgacCanti	-10.7882
▁samI	-10.7883
▁vyavahAra	-10.7884
▁Apa	-10.7885
▁jayA	-10.7889
dEH	-10.7889
puraM	-10.7889
yogataH	-10.7891
▁vihitA	-10.7892
▁padasya	-10.7893
svA	-10.7893
▁praBum	-10.7894
grAh	-10.7894
▁AhUya	-10.7895
▁dvArakA	-10.7896
dUre	-10.7897
▁waNkaRam	-10.79
yAnAM	-10.7901
▁paSyantu	-10.7901
cakAra	-10.7902
▁tftIyaH	-10.7906
▁BAvi	-10.7907
▁pralaya	-10.7907
vatsa	-10.7908
praty	-10.7908
parRa	-10.791
▁dvIpa	-10.791
▁vfkz	-10.7911
▁pAradaH	-10.7914
nitya	-10.7917
Baww	-10.7917
anyAn	-10.7918
yogI	-10.7918
▁kalpate	-10.7918
jAtaH	-10.792
▁vicAraH	-10.792
▁vESampAyanaH	-10.7921
PalAni	-10.7922
mil	-10.7929
aSuBam	-10.7929
BUzaRam	-10.7932
▁nirantara	-10.7933
▁lakzyate	-10.7934
▁tar	-10.7935
rava	-10.7936
▁senAm	-10.7937
▁grAsa	-10.794
▁gIt	-10.7942
▁tulA	-10.7942
▁maDusUdana	-10.7944
Seza	-10.7944
hatyA	-10.7945
▁dinAni	-10.7945
▁gItA	-10.7945
pataye	-10.7949
▁jYAti	-10.7951
eSa	-10.7955
▁prayacCa	-10.7957
▁dadfSe	-10.7959
▁sADayet	-10.7959
gAruq	-10.796
▁vartamAne	-10.7961
ruc	-10.7962
ratA	-10.7963
▁prayojayet	-10.7964
▁mAdrI	-10.7964
yete	-10.7965
▁purAtanam	-10.7965
▁Druva	-10.7965
▁antaram	-10.7967
sTasya	-10.7968
▁AP	-10.7969
kozW	-10.797
▁tapa	-10.7973
Ananam	-10.7975
▁nArAyaRam	-10.7978
▁anyatamA	-10.7978
daRq	-10.7979
▁anila	-10.7981
▁praSn	-10.7981
▁vIr	-10.7982
▁ajAyata	-10.7983
▁janAn	-10.7983
▁viditam	-10.7985
▁kz	-10.7985
yogi	-10.7988
svaBAv	-10.7988
▁ASramam	-10.7989
▁ulleKa	-10.7992
▁kaWina	-10.7992
▁Aropya	-10.7995
▁hiNgu	-10.7996
uttamA	-10.7997
arRava	-10.7998
jena	-10.8
▁vEjYAnika	-10.8001
▁karotu	-10.8004
▁dvis	-10.8006
▁budDvA	-10.8007
siMhaH	-10.8007
▁ganDaH	-10.8008
▁sTApitaH	-10.8009
▁basayAn	-10.8009
udBavam	-10.801
AyuDam	-10.8013
▁gAyan	-10.8017
▁sutAn	-10.8017
▁BAz	-10.8017
▁roza	-10.8017
tamA	-10.8018
eSvaram	-10.8019
▁daD	-10.802
▁yuva	-10.8021
▁upalaByate	-10.8023
▁Anand	-10.8024
cCan	-10.8025
fziBiH	-10.8026
Samanam	-10.8028
jYAt	-10.8029
▁kra	-10.8029
tamaM	-10.803
▁mantrI	-10.8031
▁upadeSa	-10.8031
arhati	-10.8032
jYAn	-10.8035
tyE	-10.8037
male	-10.8037
tejasaH	-10.8039
ala	-10.804
tila	-10.8041
▁fkza	-10.8042
▁BoH	-10.8046
▁vidDvA	-10.8049
▁jI	-10.805
▁jAnAmi	-10.8051
▁kAraRataH	-10.8051
DarAH	-10.8055
▁cetasA	-10.8055
▁vyavahAraH	-10.8055
▁prayojanam	-10.8055
kAlika	-10.8058
▁gadayA	-10.8058
amlena	-10.8059
▁caturBiH	-10.8059
Bara	-10.806
▁BfguH	-10.8061
▁fzaBa	-10.8061
▁majja	-10.8064
hatam	-10.8065
▁nirmARam	-10.8069
▁adfzwa	-10.8071
vAH	-10.8072
BARqa	-10.8075
▁SatrUn	-10.8076
svara	-10.8081
Nge	-10.8082
▁baliH	-10.8085
▁viSvAsa	-10.8085
▁samprApya	-10.8086
▁AramBa	-10.8087
gre	-10.8087
▁SUdraH	-10.8088
▁nirdeS	-10.8091
▁cu	-10.8091
▁damaH	-10.8094
▁tejasvI	-10.8094
▁jYAtum	-10.8095
ketuH	-10.8099
pAlanaM	-10.81
vAhanaH	-10.8103
▁pratipadyate	-10.8106
kow	-10.8108
ASayaH	-10.8108
Ayatanam	-10.8109
▁janamejayaH	-10.8109
SAsak	-10.8109
▁kzaRena	-10.8111
mataH	-10.8111
▁kASmIra	-10.8112
▁prAkfta	-10.8113
DvajaH	-10.8119
diSya	-10.812
▁janArdana	-10.812
▁tizWan	-10.8121
vaha	-10.8125
▁dozAn	-10.8126
▁ajYAta	-10.8126
spfS	-10.8127
BrAnt	-10.8127
▁darpa	-10.8128
▁rAkzasI	-10.8128
▁aSnute	-10.8129
▁SfRoti	-10.8129
hAya	-10.8132
▁nihatam	-10.8134
Amalaka	-10.8134
yantam	-10.8135
▁Apad	-10.8137
Ke	-10.8138
raSmi	-10.8139
praBftayaH	-10.814
▁BikzavaH	-10.814
varyasya	-10.814
yutA	-10.8141
▁sADAraRa	-10.8143
uttamAH	-10.8143
▁raTAt	-10.8143
▁SO	-10.8144
asrakilomIwarmit	-10.8145
▁DftiH	-10.8147
agAt	-10.8148
▁sUtr	-10.8148
BaNg	-10.815
▁pratizWitam	-10.815
evAsti	-10.8152
▁muniBiH	-10.8153
▁prAp	-10.8154
▁vfzaBa	-10.8155
kzetrasya	-10.8156
syAsya	-10.816
mitam	-10.8162
▁icCan	-10.8164
dvIpe	-10.8167
▁viparIta	-10.8168
sTitaH	-10.8169
▁vacanAt	-10.817
kleSa	-10.8171
▁duz	-10.8173
▁gfhezu	-10.8175
puwa	-10.8177
▁pAva	-10.8179
▁akzi	-10.818
▁aByAsa	-10.818
kzara	-10.8181
▁sidDA	-10.8183
▁kazwa	-10.8184
kalyARa	-10.8185
▁brUte	-10.8186
▁DAny	-10.8188
▁tamasA	-10.8189
kaT	-10.819
▁anekAH	-10.819
▁parayA	-10.8191
▁praRa	-10.8191
▁kiYcid	-10.8192
tAraH	-10.8193
▁dAr	-10.8196
▁maheSvaram	-10.8196
▁lABa	-10.8196
▁prArTanA	-10.8196
duzwa	-10.8196
stava	-10.8198
saMkASam	-10.8199
▁nfpAH	-10.8203
yugam	-10.8203
▁aBinaya	-10.8203
kartavya	-10.8204
kArikA	-10.8205
saMjY	-10.8208
▁udyAna	-10.8208
▁kleS	-10.821
▁kimarTam	-10.8213
▁samAdAya	-10.8214
▁vicAraRA	-10.8214
▁utsavaH	-10.8216
▁vyatIt	-10.8218
▁SuDyati	-10.8219
▁pitarO	-10.8221
▁sarvataH	-10.8222
vfkz	-10.8223
▁sPuwa	-10.8223
▁mumoca	-10.8225
ASrame	-10.8225
pramucyate	-10.8225
nABi	-10.8225
sAda	-10.8226
▁AkASam	-10.8227
▁prasAdAt	-10.8228
▁agamat	-10.8228
nArTaM	-10.8232
▁vittam	-10.8233
▁agne	-10.8235
▁jagannATa	-10.8235
▁aBUvan	-10.8237
▁nirmitA	-10.8237
▁kevala	-10.8238
BO	-10.8242
▁rAjYe	-10.8243
sTale	-10.8244
▁laGuH	-10.8246
▁vicArya	-10.8247
▁nAgara	-10.8248
kuRqal	-10.8248
ArtA	-10.8248
▁yogya	-10.825
varI	-10.8253
▁manuzyasya	-10.8255
▁samIpasT	-10.8255
mantram	-10.8255
▁ruzA	-10.8256
paT	-10.8258
▁vikAsa	-10.826
▁aNk	-10.826
CA	-10.8261
▁vaSam	-10.8262
▁SatAni	-10.8264
viMSati	-10.8264
▁duzw	-10.8266
▁niScayaH	-10.8268
▁paramaH	-10.8272
asyE	-10.8277
vyaH	-10.8278
dfSya	-10.8279
nAmakasya	-10.828
▁jal	-10.8283
malA	-10.8285
▁vajr	-10.8285
ASayA	-10.8285
nAda	-10.8286
indriyARi	-10.8286
anyonyam	-10.8288
mitra	-10.829
▁SiKA	-10.8291
anAya	-10.8292
ucCizwa	-10.8294
otsava	-10.8295
▁svAmi	-10.8297
aho	-10.8299
▁Uru	-10.8303
baD	-10.8306
atvena	-10.8307
▁sasarja	-10.8307
▁SrutA	-10.8308
asmAn	-10.8311
▁antare	-10.8314
▁kuRqa	-10.8314
▁pAwa	-10.8314
▁caturzu	-10.8315
▁Ardra	-10.8317
kzetrezu	-10.8319
ahar	-10.8322
▁SakuntalA	-10.8331
▁prakftyA	-10.8331
vAhana	-10.8333
▁BOtika	-10.8333
viBAgasya	-10.8334
▁BAvAH	-10.8334
▁vARI	-10.8335
▁gadya	-10.8335
▁varDamAnaH	-10.8337
▁muKAt	-10.8339
▁ram	-10.8341
guRAn	-10.8342
wIkA	-10.8342
nIyam	-10.8342
▁mate	-10.8343
▁kalp	-10.8344
▁gAr	-10.8344
viveka	-10.8345
▁nAgaH	-10.8347
▁Gan	-10.8348
▁SudDaH	-10.835
rati	-10.8351
itAn	-10.8352
▁vinaya	-10.8353
▁d	-10.8355
Ady	-10.8355
ASaya	-10.8356
dAma	-10.8357
badDam	-10.8358
▁saMDi	-10.8363
▁triviDam	-10.8364
▁SokaH	-10.8366
aNgAni	-10.8368
▁sP	-10.8373
nayana	-10.8373
janagaRanAnuguRa	-10.8375
▁dIrGA	-10.8378
do	-10.838
▁aDI	-10.8381
▁manaHSilA	-10.8381
▁viS	-10.8382
karEH	-10.8383
▁pArT	-10.8383
vadan	-10.8383
siMh	-10.8385
▁saMyam	-10.8386
arTAn	-10.8389
kAS	-10.8389
▁tAdfSa	-10.839
▁van	-10.8395
▁karRasya	-10.8396
rasAH	-10.8396
parvataH	-10.8397
Do	-10.8397
nftya	-10.8398
▁haraH	-10.8398
dvaye	-10.8399
▁saBAyAm	-10.8399
▁SlokAH	-10.8399
ww	-10.84
▁tadarTa	-10.8403
kramaRa	-10.8403
aYja	-10.8405
▁kapila	-10.8406
sTalam	-10.8406
▁devAlaya	-10.8408
yARi	-10.8413
padavI	-10.8417
▁vAnarAH	-10.8417
▁paYjAbarAjy	-10.8417
kArAn	-10.8418
▁ASrame	-10.842
padya	-10.842
▁SarAva	-10.8423
▁vikAs	-10.8424
yogya	-10.8425
▁yug	-10.8426
sambadDA	-10.8427
▁atyarTam	-10.8427
▁hAsya	-10.8428
▁svaDarma	-10.8428
▁sUkzmam	-10.8429
vatyaH	-10.8431
ayituM	-10.8433
▁vyApAr	-10.8433
rAkzasa	-10.8435
▁gaRaH	-10.8439
▁DAr	-10.8441
▁GaRwA	-10.8447
▁dIrGam	-10.8449
darSi	-10.8449
▁pure	-10.8449
hf	-10.845
BArata	-10.8451
puNK	-10.8452
vAraM	-10.8452
▁drazwA	-10.8453
sAhas	-10.8454
▁hy	-10.8454
tarpaR	-10.8456
▁Kaqga	-10.8459
▁SudDA	-10.846
▁vAmana	-10.8461
▁SASvatam	-10.8461
▁jvAlA	-10.8462
▁BAratam	-10.8462
▁yatnena	-10.8462
tfRa	-10.8463
purARa	-10.8465
▁vyavasTitaH	-10.8465
▁amala	-10.8467
▁yU	-10.8468
vfza	-10.8468
YjA	-10.8468
▁kUpa	-10.8468
rAji	-10.8469
▁yudDAya	-10.847
▁unmatta	-10.847
Satru	-10.8471
▁lajjA	-10.8471
▁nivasati	-10.8471
▁pratigfhya	-10.8474
▁kaw	-10.8475
▁balavat	-10.8477
▁balinA	-10.8479
SikzaRaM	-10.8479
▁karuRA	-10.8479
▁yuDya	-10.848
▁sAyakEH	-10.8482
▁somam	-10.8486
▁kasyAp	-10.8486
saMhAra	-10.8486
mUle	-10.8487
▁kAlAntare	-10.8489
▁SrAva	-10.849
▁raGu	-10.849
▁kaRWe	-10.8491
banDam	-10.8491
tikA	-10.8491
▁nityA	-10.8493
vaSya	-10.8494
▁haridrA	-10.8502
SfNga	-10.8505
▁parizvajya	-10.8505
▁IdfS	-10.8506
▁BArgava	-10.8507
▁prARAyAma	-10.8507
▁vasuMDarA	-10.8511
▁sTApayitvA	-10.8512
▁vidyAm	-10.8512
▁apUrva	-10.8513
▁parezAm	-10.8513
granT	-10.8514
Ikfta	-10.8514
▁viBajya	-10.8515
haret	-10.8516
▁vf	-10.8519
▁hanumAn	-10.852
▁sTalam	-10.8522
▁dviviDam	-10.8523
sahitam	-10.8524
▁bAlye	-10.8525
vftte	-10.8526
sneh	-10.8527
mfdu	-10.8527
▁kan	-10.8533
guqa	-10.8534
▁caturviMSati	-10.8535
AyAti	-10.8535
Soc	-10.8537
▁SAntaH	-10.8538
▁tIrTAni	-10.8543
rudDa	-10.8543
vilAsa	-10.8547
▁gAnDi	-10.8547
▁zaqBiH	-10.8548
elA	-10.8548
▁reKA	-10.8549
▁kuruzva	-10.8554
Sakun	-10.8554
aBayA	-10.8557
▁Srotram	-10.8559
▁kunda	-10.8559
▁apatya	-10.856
en	-10.8565
▁pratiBAti	-10.8571
▁bal	-10.8573
▁paYcamaH	-10.8573
▁hft	-10.8574
▁saMkalpa	-10.8574
▁rIti	-10.8574
luH	-10.8575
▁ikzvAku	-10.8575
▁prahara	-10.8575
Iye	-10.8575
▁pAradam	-10.8577
rva	-10.8579
kawI	-10.858
yAva	-10.858
IkzaRaH	-10.8581
riti	-10.8581
aDarma	-10.8581
▁mahendra	-10.8581
▁rajanI	-10.8581
viDim	-10.8582
▁mETilI	-10.8583
sAtmya	-10.8583
▁vastUni	-10.8584
Svara	-10.8585
▁mAnasam	-10.8585
▁caritam	-10.8585
UQ	-10.8587
izwam	-10.8588
▁pApaH	-10.8589
▁sTAlI	-10.8592
vacanAt	-10.8592
▁SItA	-10.8593
▁paramAtmA	-10.8593
mAgaD	-10.8594
krA	-10.8599
utTitam	-10.86
hastA	-10.8603
purAR	-10.8604
nimitt	-10.8604
romA	-10.8606
▁mukunda	-10.8606
▁rajasA	-10.8608
▁malla	-10.8609
▁ehi	-10.861
▁nihanti	-10.8611
▁sAtvata	-10.8612
▁kOnteyaH	-10.8612
▁ityarTa	-10.8614
Pal	-10.8614
▁maha	-10.8614
itAm	-10.8616
▁jYA	-10.862
upAya	-10.862
▁gayA	-10.8623
▁Bavanam	-10.8626
samBavam	-10.8626
aNge	-10.863
vAruR	-10.8631
▁stuti	-10.8631
IyaM	-10.8632
granTi	-10.8633
bo	-10.8636
▁svarRam	-10.8636
kAnti	-10.8636
nizW	-10.8638
Sastr	-10.864
▁evA	-10.8643
sutam	-10.8644
kalpam	-10.8645
▁candraH	-10.8646
▁viduzA	-10.8646
SIlA	-10.8648
atiTi	-10.865
▁tABiH	-10.8652
aDunA	-10.8653
▁prAptum	-10.8654
jagmuH	-10.8656
▁SrutaH	-10.8657
▁manIziRaH	-10.8658
▁yuktA	-10.866
DarmeRa	-10.866
▁pAYcAl	-10.8661
saMyogAt	-10.8661
praBAva	-10.8663
▁aliKat	-10.8663
▁mfzA	-10.8664
▁SrIrAma	-10.8665
▁janakaH	-10.8665
DIyate	-10.8666
▁SItala	-10.8666
AMSu	-10.8667
matyA	-10.8668
▁pradattA	-10.8669
▁svIya	-10.8669
▁sAvitrI	-10.867
▁svAn	-10.8673
▁sAhAyyena	-10.8673
▁kAryakram	-10.8678
pam	-10.8678
pakzaH	-10.868
kra	-10.868
▁saKi	-10.868
▁puwam	-10.8682
rahitA	-10.8682
toya	-10.8683
▁guhyam	-10.8683
▁toyam	-10.8686
svAmi	-10.8686
rOdr	-10.8688
▁kapilA	-10.8691
saraH	-10.8692
Avftam	-10.8694
▁sakalam	-10.8694
DvA	-10.8695
▁vidura	-10.8695
▁SoPa	-10.8696
▁svEH	-10.8699
sidDim	-10.87
▁biBarti	-10.8702
vARI	-10.8702
▁gAnDArI	-10.8702
saNG	-10.8704
▁katipay	-10.8704
▁etasmAt	-10.8706
▁camU	-10.8706
DAnA	-10.8707
nnA	-10.8707
▁pratIyate	-10.8707
aNgi	-10.8709
sampannam	-10.8709
nyA	-10.8711
jagrAha	-10.8712
▁mahattvapUrRa	-10.8715
▁dahyamAn	-10.8718
utTa	-10.8719
kAlaM	-10.8719
▁arpita	-10.8719
▁Buj	-10.8723
▁vAji	-10.8724
kendr	-10.8726
samud	-10.8727
putrA	-10.8727
cAri	-10.8727
musal	-10.8728
▁sUcanA	-10.8728
udAhftam	-10.8728
amBaH	-10.8731
▁itya	-10.8734
parR	-10.8735
prajA	-10.8735
▁mahAdevam	-10.8736
SayaH	-10.8736
mUrti	-10.8736
anvitA	-10.8738
layaH	-10.8739
▁surEH	-10.874
saMDi	-10.874
▁mAsAn	-10.8742
triMSat	-10.8743
dehaH	-10.8744
hitAH	-10.8744
▁salilam	-10.8745
▁saptadaSa	-10.8746
▁harita	-10.8747
leKA	-10.8747
▁sneh	-10.8747
▁kuzWam	-10.8748
kAyAH	-10.8748
carati	-10.8749
AdikaM	-10.8751
mokz	-10.8752
▁dAtavyam	-10.8752
▁gras	-10.8753
▁pravftti	-10.8753
▁mAnav	-10.8754
lIlA	-10.8755
gacCanti	-10.8756
▁tarka	-10.8756
▁matsy	-10.8758
▁viSAlA	-10.8759
▁jIvanti	-10.8759
tuz	-10.8761
▁nind	-10.8764
▁apaH	-10.8765
Kya	-10.8766
vftya	-10.8767
vadBiH	-10.8769
rakza	-10.8771
▁vahnim	-10.8772
kavi	-10.8772
▁Brama	-10.8775
jara	-10.8775
▁tadIya	-10.8776
▁el	-10.8778
astreRa	-10.8779
▁saBAm	-10.878
▁padmA	-10.8781
▁vft	-10.8781
kzIRa	-10.8783
triPalA	-10.8785
devatAH	-10.8786
granTAH	-10.8788
▁pAzARa	-10.8788
brU	-10.8789
▁viKyAtaH	-10.879
jane	-10.8791
vfttO	-10.8791
▁karpUra	-10.8792
▁Sez	-10.8792
▁lakzmaRam	-10.8793
vimardayet	-10.8797
vika	-10.8797
▁jap	-10.8798
▁SriyaH	-10.8799
▁mohaH	-10.88
taraM	-10.88
vEr	-10.8801
raRAt	-10.8801
gatena	-10.8802
▁gfhRIyAt	-10.8802
▁DAraRA	-10.8802
▁kroDAt	-10.8805
▁purI	-10.8806
dIp	-10.8807
avartanta	-10.8813
deSezu	-10.8815
▁puruzottama	-10.8816
▁nadIm	-10.882
▁lOha	-10.8821
▁aByA	-10.8822
Avaham	-10.8823
▁miTas	-10.8826
▁jIvanam	-10.8827
aByAsa	-10.8827
▁Datte	-10.8829
pAnam	-10.8833
▁vaSI	-10.8834
laya	-10.8835
AyuD	-10.8836
Ura	-10.8838
▁pannaga	-10.884
aBitas	-10.8841
yAnam	-10.8843
▁biBrat	-10.8843
karmaRAm	-10.8843
ntIm	-10.8845
vasu	-10.8846
satvam	-10.8848
gatAm	-10.885
udAharanti	-10.885
SIt	-10.8853
▁patrARi	-10.8855
▁BavadBiH	-10.8855
▁sTApitam	-10.8856
AnusAreRa	-10.8859
▁granTAH	-10.8865
▁rasEH	-10.8866
▁Arta	-10.8867
▁mahAvIra	-10.8867
▁prayat	-10.8868
▁jYAnena	-10.8868
riya	-10.887
pAtaH	-10.8871
▁sutAm	-10.8872
▁karuRa	-10.8874
Byo	-10.8874
▁AS	-10.8874
jYam	-10.8875
tasyAH	-10.8876
▁tato	-10.8878
▁prAyAt	-10.888
gEH	-10.8885
rita	-10.8886
▁bfhatI	-10.8886
▁SiKi	-10.8887
▁samprAptaH	-10.889
DayaH	-10.8891
▁prAyaScittam	-10.8892
▁malaya	-10.8893
▁samApya	-10.8894
kzayAt	-10.8894
parigrahaH	-10.8895
▁Bft	-10.8897
toyena	-10.8898
▁tadAnIM	-10.8898
▁SacI	-10.8899
▁brAhmaReByaH	-10.8899
▁Dvajam	-10.89
palita	-10.8902
mAruta	-10.8902
▁dvAram	-10.8902
nizWa	-10.8904
▁vijayA	-10.8906
▁cintana	-10.8906
▁ala	-10.8906
▁vIrO	-10.8911
grAm	-10.8912
▁tizWet	-10.8912
▁kAYcan	-10.8913
dattA	-10.8914
varma	-10.8915
▁muktiH	-10.8915
okt	-10.8916
▁saMgrAma	-10.8917
vedi	-10.8917
▁vihitam	-10.8918
pAzARa	-10.892
Ru	-10.892
gada	-10.8921
kzIram	-10.8921
▁BAgavata	-10.8923
▁pradAp	-10.8924
▁ikzu	-10.8925
▁sargaH	-10.8926
▁ajYAna	-10.8926
▁gfhAn	-10.8929
putrO	-10.8929
▁nirvARa	-10.8931
▁lu	-10.8931
vAse	-10.8932
▁parAkram	-10.8933
▁praveS	-10.8933
SAK	-10.8935
tama	-10.8936
▁trivft	-10.8937
arcayet	-10.8938
svAminaH	-10.8938
wu	-10.8938
kalyAR	-10.8939
majja	-10.8939
▁oM	-10.8939
▁sandeSa	-10.8941
▁dvijottama	-10.8942
▁Silpa	-10.8942
▁kiyat	-10.8944
Bavana	-10.8946
▁Sasyate	-10.8948
hAri	-10.8948
puzpI	-10.8949
▁aDyakzaH	-10.8951
padDatiH	-10.8952
kARi	-10.8955
▁Asanam	-10.8956
hAsa	-10.8956
grAmaH	-10.8957
kurvAR	-10.8958
▁BIru	-10.896
AjO	-10.896
SElI	-10.8961
AdAraBya	-10.8961
▁same	-10.8962
▁garuqa	-10.8966
varg	-10.8966
▁vaha	-10.8966
▁SiSira	-10.8968
jAm	-10.8971
▁mahABArata	-10.8971
▁yajYEH	-10.8972
kArA	-10.8973
Cardi	-10.8974
ABaH	-10.8974
▁prIta	-10.8975
▁SEl	-10.8975
▁Sukram	-10.8975
▁prasAdam	-10.8976
aBavan	-10.8977
▁mahIyat	-10.8978
▁jah	-10.8982
▁vacana	-10.8984
arTA	-10.8988
Sizya	-10.8989
hartA	-10.8989
fzeH	-10.899
▁sara	-10.8991
▁svaBAvaH	-10.8995
antaHpura	-10.8995
SreRI	-10.8995
▁jantuH	-10.8996
vfdDiH	-10.8997
▁kramaSaH	-10.8998
kta	-10.8999
cetanaH	-10.8999
▁BinnA	-10.8999
▁tala	-10.9
▁seveta	-10.9001
rAmaH	-10.9001
▁svedayet	-10.9003
▁dugDa	-10.9004
▁puzp	-10.9007
▁saNgam	-10.901
Bojanam	-10.901
dAm	-10.9014
▁BogAn	-10.9015
▁ArabDaH	-10.9015
▁rAya	-10.9018
▁sundar	-10.9019
▁yoDa	-10.902
▁samAgatAH	-10.9022
▁vidyayA	-10.9022
▁Sat	-10.9023
lokAn	-10.9023
▁AjagAma	-10.9023
▁manoH	-10.9025
aRu	-10.9026
srAva	-10.9026
▁fzIn	-10.9026
tInAm	-10.9031
arI	-10.9032
AgatA	-10.9036
izvAsaH	-10.9037
parAH	-10.9038
balAt	-10.904
AtmajA	-10.9041
▁Ayurveda	-10.9042
sutA	-10.9045
yAmahe	-10.9046
▁prakzAlya	-10.9046
grah	-10.9047
▁atIta	-10.9048
▁tarasA	-10.9048
granTaH	-10.905
▁araRya	-10.9054
▁anyatama	-10.9054
▁druma	-10.9059
▁kutrAp	-10.9061
kop	-10.9061
▁sEnya	-10.9062
gamanam	-10.9063
▁mayaH	-10.9063
▁mahattva	-10.9065
utTAya	-10.9065
icCati	-10.9071
kftEH	-10.9071
jAtayaH	-10.9071
pOtr	-10.9073
▁bIjAni	-10.9073
parAyaRAH	-10.9076
jU	-10.9077
▁kAmya	-10.9081
▁mUrDa	-10.9081
▁saMsAre	-10.9082
▁paRqit	-10.9082
▁vicAr	-10.9084
vizam	-10.9089
▁laNkAm	-10.909
▁SarIr	-10.909
DarmAH	-10.9091
raka	-10.9091
▁samaya	-10.9095
▁narakam	-10.9096
▁dAnavAH	-10.9096
aBinand	-10.9097
▁niruDya	-10.9099
▁do	-10.9099
antakaH	-10.91
▁vaktavyam	-10.91
jyA	-10.9102
viSezAH	-10.9102
▁suganDi	-10.9103
▁aDyakza	-10.9103
▁madya	-10.9103
▁amoGa	-10.9105
▁vaktra	-10.9108
udBavaH	-10.9109
stare	-10.9109
▁gala	-10.9111
▁bfhattam	-10.9111
▁niyuktaH	-10.9115
▁budDeH	-10.9115
▁yoniH	-10.9116
▁vyasanam	-10.9116
lavaRam	-10.912
rAv	-10.9124
▁vede	-10.9124
▁viGna	-10.9125
kzipet	-10.9125
▁savitA	-10.9129
atuH	-10.913
aBiDIyate	-10.9132
▁SaNkA	-10.9132
udaye	-10.9134
haraRam	-10.9134
▁Amantrya	-10.9136
▁samudram	-10.9137
nAqurAjy	-10.9139
jita	-10.9139
sundarI	-10.914
aKilam	-10.9141
Atman	-10.9141
vistAra	-10.9142
vAji	-10.9143
▁vil	-10.9144
vihval	-10.9144
devena	-10.9144
pIW	-10.9145
plIha	-10.9145
▁kzatram	-10.9146
▁jYAn	-10.9149
ArT	-10.9151
▁nimajj	-10.9153
▁itihAsam	-10.9154
▁BaktAH	-10.9155
nIyA	-10.9156
utpAda	-10.9157
▁praBUta	-10.9157
▁Dvaj	-10.9158
Ahuti	-10.9158
alpam	-10.9158
paYcakam	-10.9163
mUtreRa	-10.9164
etAm	-10.9166
anuzW	-10.9166
tapasA	-10.9168
▁yaSasvinI	-10.9169
zazW	-10.9169
ftu	-10.9169
Sruta	-10.9169
▁viSada	-10.9172
yeyam	-10.9174
▁anarTa	-10.9176
sEnDava	-10.9176
prAjYa	-10.9176
▁kati	-10.9177
▁manohara	-10.9177
arjunaH	-10.9178
yamARaH	-10.9178
▁rAmamohan	-10.9178
nagaryA	-10.9178
niBa	-10.9179
▁yAvad	-10.9179
▁durgam	-10.918
▁kzuDA	-10.9182
kumB	-10.9183
rahitam	-10.9186
grahI	-10.9186
▁SUra	-10.9187
kzaRam	-10.9187
mUlAni	-10.9188
▁jE	-10.9195
▁avApnoti	-10.9195
▁rAjy	-10.9196
aparAD	-10.9196
▁kaTaMcid	-10.9197
manas	-10.9202
DUm	-10.9203
pradeSezu	-10.9207
▁BikzA	-10.9207
itara	-10.9208
▁krIq	-10.9209
▁saralA	-10.9209
Sceti	-10.921
Asakta	-10.9212
RAni	-10.9213
▁gAtra	-10.9218
▁catuz	-10.9219
prAnta	-10.922
pO	-10.9221
vizayam	-10.9221
Rwa	-10.9222
viDinA	-10.9224
sitA	-10.9225
▁udDftya	-10.9227
saMrabD	-10.9228
▁Du	-10.9229
satya	-10.923
kAryezu	-10.923
▁viSa	-10.9233
▁vasa	-10.9234
▁sahAya	-10.9234
aNk	-10.9234
carAH	-10.9234
▁samIpam	-10.9238
hitA	-10.9238
amlEH	-10.9238
ruha	-10.924
vaDAn	-10.924
▁rasAyane	-10.9242
toda	-10.9243
▁ISaH	-10.9244
▁asurAH	-10.9244
▁krIqa	-10.9244
▁pata	-10.9245
▁maTurA	-10.9247
▁padaM	-10.9249
▁pItA	-10.925
▁namaskftya	-10.925
▁Bavantam	-10.9251
pEH	-10.9252
aDyayana	-10.9252
▁Bavitavyam	-10.9252
tU	-10.9253
▁nimba	-10.9256
▁dvAtriMSat	-10.9259
▁Apta	-10.9259
▁tfz	-10.926
niveS	-10.9262
▁catuHzazwi	-10.9262
upapann	-10.9263
udayaH	-10.9264
vivarjitaH	-10.9264
▁aBayam	-10.9265
nyAya	-10.9265
▁BAratI	-10.9265
utpattiH	-10.9267
lIn	-10.9268
▁netA	-10.927
▁munim	-10.9271
▁anyezA	-10.9272
gamam	-10.9273
Agatya	-10.9273
ayas	-10.9275
▁jYAtam	-10.9277
▁pramuKaH	-10.9277
Sraya	-10.9278
▁ganDaka	-10.9278
syAt	-10.928
Arogya	-10.9281
taka	-10.9288
ucca	-10.9288
sahasreRa	-10.929
dAyi	-10.9291
▁devatAnAm	-10.9292
▁CAtrA	-10.9292
trAsa	-10.9292
lan	-10.9295
saMyutA	-10.9295
▁paTyA	-10.9295
loma	-10.9297
▁hanUmAn	-10.9298
▁kristAbd	-10.9298
darSan	-10.93
SravAH	-10.93
▁DanaM	-10.9301
▁durAsad	-10.9301
ndi	-10.9301
gamaH	-10.9306
▁loham	-10.9308
Bed	-10.9309
▁praRava	-10.931
prasidDa	-10.9312
banDanam	-10.9312
▁vESya	-10.9312
▁rAjanIti	-10.9313
▁etayoH	-10.9314
▁vaNgam	-10.9315
▁gOra	-10.9316
▁Bavizya	-10.9317
dyu	-10.9318
▁agastya	-10.9321
kAmAH	-10.9322
saMjYaH	-10.9324
uditaH	-10.9325
adButa	-10.933
▁niyoj	-10.9331
vfkzasya	-10.9332
AhvA	-10.9332
purogamAH	-10.9333
uddiSya	-10.9333
▁vErAgya	-10.9333
▁mUle	-10.9334
avayava	-10.9336
▁vis	-10.9337
C	-10.9338
AcAraH	-10.9338
▁bAlam	-10.934
▁tfR	-10.9342
▁gaRanA	-10.9345
▁pfTA	-10.9346
▁saMvatsara	-10.9348
▁BImA	-10.9349
▁gantavyam	-10.9351
▁prApnuyAt	-10.9351
asurEH	-10.9351
▁paramparA	-10.9353
aNgAH	-10.9353
icCayA	-10.9353
kzipta	-10.9356
▁puruze	-10.9356
arpaRa	-10.9358
yojita	-10.936
▁vidvAMsaH	-10.9361
▁lOkika	-10.9361
SIrza	-10.9365
▁praSnaH	-10.9365
▁racita	-10.9367
loBa	-10.9367
astrARi	-10.9368
▁sadfSam	-10.9373
yAvat	-10.9373
▁mahati	-10.9376
kramAt	-10.9377
▁janAnAm	-10.9377
▁praBAte	-10.9377
▁DanaMjaya	-10.9378
▁palASa	-10.9378
▁pAke	-10.9383
hfdaya	-10.9385
ADyA	-10.9385
Akulam	-10.9386
Rasya	-10.9388
SudDiH	-10.9389
maDuka	-10.9389
ADAra	-10.9389
muKEH	-10.9391
▁saMskfti	-10.9392
kvATa	-10.9392
▁kanyakA	-10.9392
dAh	-10.9393
▁Bukta	-10.9396
iRAm	-10.9396
▁nimittam	-10.9397
kumAr	-10.9398
▁saritaH	-10.94
▁vArARasI	-10.94
▁SaknumaH	-10.9401
hArI	-10.9402
jj	-10.9402
darSanasya	-10.9403
mantraH	-10.9404
▁parivart	-10.9406
gatAn	-10.9406
▁izyate	-10.9406
DAvati	-10.9407
▁parvatAH	-10.9407
▁trayam	-10.9409
▁vacanaM	-10.9409
▁kilomIwar	-10.9409
▁prAkftika	-10.941
▁vikfta	-10.9413
▁pAli	-10.9414
maR	-10.9415
▁SAntA	-10.9416
▁SrezWA	-10.9417
▁BfNga	-10.9419
stara	-10.9421
▁nirRaya	-10.9424
aYjaliH	-10.9424
▁Boj	-10.9424
▁Gore	-10.9425
▁sTitO	-10.9426
ASritaH	-10.9429
▁dvijasattama	-10.9432
BUH	-10.9433
▁prAR	-10.9436
Asti	-10.9438
▁unnat	-10.9439
dU	-10.9439
BUti	-10.944
duH	-10.9441
sADak	-10.9442
sUtram	-10.9443
▁samast	-10.9443
▁rAzwram	-10.9444
▁duzkfta	-10.9444
cAriRaH	-10.9447
▁meha	-10.9447
avagAh	-10.9448
padaH	-10.9448
upalaByate	-10.9449
Bavan	-10.9449
▁de	-10.9453
vaNga	-10.9453
sTitO	-10.9453
▁parivArya	-10.9454
▁puMsaH	-10.9454
satva	-10.9455
AMS	-10.9455
▁asmat	-10.9457
▁daSaraTaH	-10.946
pAdya	-10.9461
▁AviSat	-10.9464
▁tiru	-10.9465
▁mAlA	-10.9467
▁kalaha	-10.9468
Amiza	-10.9469
▁paYcama	-10.9469
▁valI	-10.9471
▁padmam	-10.9471
▁dUram	-10.9472
▁gfhyate	-10.9473
▁aBiprAyaH	-10.9474
ura	-10.9475
AkArA	-10.9477
kUp	-10.9482
▁varRitam	-10.9483
▁vizRunA	-10.9485
lApa	-10.9486
▁vimAnasTAnak	-10.9487
vAdya	-10.9487
▁yojyam	-10.949
SAstraM	-10.9491
yuta	-10.9492
▁sTirA	-10.9493
skanD	-10.9495
▁ekaviMSati	-10.9496
▁nivAr	-10.9497
▁upavAsa	-10.9497
devi	-10.9499
▁AryA	-10.9501
▁grAmya	-10.9503
▁samprekzya	-10.9504
▁vedAnta	-10.9505
DiH	-10.9506
▁Ur	-10.9508
▁candramAH	-10.9508
vayas	-10.9509
▁kfSa	-10.951
▁salile	-10.951
▁kavayaH	-10.951
kendram	-10.9512
Antar	-10.9512
SoB	-10.9513
Apta	-10.9514
guhya	-10.9517
mayEH	-10.9518
▁upetya	-10.9519
▁prAcInA	-10.952
▁varRaH	-10.9524
▁vEram	-10.9525
SarkarA	-10.9525
▁ANglA	-10.9526
▁pUjyate	-10.9527
▁nirmitAH	-10.953
apra	-10.953
kim	-10.9531
▁nAwakaM	-10.9531
▁kaNka	-10.9532
▁vfkzAH	-10.9532
▁viDAna	-10.9533
ASrayAH	-10.9533
▁vikAra	-10.9534
etad	-10.9534
▁vizay	-10.9535
▁jantu	-10.9537
▁SoRitam	-10.9539
▁dfzwyA	-10.954
prasAd	-10.954
maDyam	-10.954
nArAyaR	-10.9541
▁gfhAt	-10.9541
▁virAwa	-10.9542
maraRa	-10.9544
▁cacAra	-10.9546
yamARA	-10.9547
AQyA	-10.9548
▁kAlA	-10.9548
SUnya	-10.9549
zam	-10.9549
vyavahAra	-10.955
▁KAd	-10.955
▁pratyaya	-10.9553
ottaraM	-10.9553
DanuH	-10.9554
pezayet	-10.9557
▁relasTAnak	-10.9557
▁pativratA	-10.9561
ABAsa	-10.9563
▁fzaBaH	-10.9563
vatsalaH	-10.9567
▁vfkodaraH	-10.9568
▁kfziH	-10.9569
yizyanti	-10.9569
▁AkASe	-10.957
itas	-10.9571
▁rog	-10.9572
guRena	-10.9575
varzeRa	-10.9577
▁niyatam	-10.958
anyena	-10.958
▁BArat	-10.958
▁jyotiz	-10.9581
▁jambU	-10.9582
muktA	-10.9583
vegaH	-10.9584
▁saMnyAsa	-10.9585
cArI	-10.9587
prakfti	-10.9587
udvaha	-10.959
SAstr	-10.959
▁muRqa	-10.959
rujaH	-10.9591
drAvEH	-10.9591
dfzwiH	-10.9592
▁jAnan	-10.9595
deyam	-10.9595
dah	-10.9599
vanta	-10.9601
karA	-10.9602
garBA	-10.9606
las	-10.9606
DAreRa	-10.9607
devAlay	-10.9607
caraH	-10.9607
enEva	-10.9608
▁indirA	-10.9609
▁kOsalyA	-10.9609
▁pradadO	-10.9609
hastam	-10.961
▁homa	-10.9613
▁ramate	-10.9613
kAriRI	-10.9613
eran	-10.9613
parimARa	-10.9617
▁karRe	-10.9619
amala	-10.962
Bra	-10.9622
▁upanizad	-10.9624
▁DUm	-10.9624
AnanA	-10.9625
▁nivartate	-10.9626
▁prakAS	-10.9628
kenApi	-10.9628
▁saY	-10.963
▁boDisattvaH	-10.9631
ahAt	-10.9632
mukta	-10.9632
▁viSezAt	-10.9634
kramam	-10.9635
▁mAnam	-10.9636
kzO	-10.9636
▁SudD	-10.964
anyAni	-10.9643
grAmasya	-10.9646
▁jagatAm	-10.965
kaRqU	-10.9653
▁saMyoga	-10.9654
pUrayet	-10.9656
kalpanA	-10.9656
viSvavidyAlaye	-10.9656
▁martyaH	-10.9658
kAYcana	-10.966
asmABiH	-10.966
▁hfzwAH	-10.9661
▁saMtApa	-10.9662
▁viprAn	-10.9663
▁rOdra	-10.9663
▁vinaSyati	-10.9664
mAnAt	-10.9665
▁snuzA	-10.9666
amAnaH	-10.9666
▁manuzyARAm	-10.9668
Akula	-10.9668
sarga	-10.9668
▁vaSa	-10.9669
▁parvate	-10.9669
▁saYjAta	-10.967
▁raviH	-10.967
▁AScaryam	-10.967
antareRa	-10.9671
saMgraha	-10.9672
▁OzaD	-10.9674
▁SivarAja	-10.9675
itavantaH	-10.9678
lip	-10.9679
mAnI	-10.9679
▁svataH	-10.9681
duhitA	-10.9683
▁avaloka	-10.9684
▁Sabdena	-10.9685
vidyAlay	-10.9686
pawa	-10.9686
▁yasyAm	-10.9687
▁mfgAH	-10.9688
▁samudraH	-10.9688
samaya	-10.9689
▁IdfSam	-10.969
saMnyAs	-10.969
cApa	-10.9692
▁cirAt	-10.9693
▁BAvena	-10.9698
▁Andolana	-10.9699
yudDam	-10.97
plav	-10.97
▁mantrEH	-10.9702
sIm	-10.9702
vacan	-10.9703
laB	-10.9703
▁janam	-10.9704
▁gamanam	-10.9704
▁nASaH	-10.9704
▁SoBanam	-10.9704
▁pAd	-10.9706
Bavanam	-10.9706
Amahe	-10.9707
yamAne	-10.9708
dravyam	-10.9708
▁malam	-10.9708
upahata	-10.971
▁pAYcAla	-10.9713
daDe	-10.9713
dugDa	-10.9713
icCAmi	-10.9713
▁CandaH	-10.9714
zaH	-10.9714
▁samavAy	-10.9714
mAnuz	-10.9714
yakza	-10.9715
▁SiKaRqI	-10.9716
▁prasahya	-10.9716
▁puw	-10.9716
▁yaTASakti	-10.9717
▁padya	-10.9718
▁upAsate	-10.9718
▁ArAD	-10.9718
▁pUrvadiSi	-10.9719
pawu	-10.9723
viparyaya	-10.9727
Bakz	-10.9727
▁apaSyan	-10.9727
BUzaRA	-10.9728
▁sadBiH	-10.9729
cyutaH	-10.9729
▁nAg	-10.973
▁gOtama	-10.973
▁pady	-10.9733
varRena	-10.9733
rAs	-10.9734
▁rAkzasam	-10.9735
▁ESvaryam	-10.9735
▁samApta	-10.9737
▁uttarapradeSa	-10.9742
aNgulam	-10.9743
▁vand	-10.9744
hAn	-10.9745
▁nirRayaH	-10.975
SudDi	-10.9753
▁pravftte	-10.9753
raTe	-10.9754
ste	-10.9754
▁BAskara	-10.9756
▁ad	-10.9757
pfzWe	-10.9758
▁kAMsya	-10.976
koS	-10.9762
Ikftam	-10.9762
▁pakze	-10.9765
Atmaja	-10.9765
▁ekEkam	-10.9766
ABiH	-10.9767
▁vasudeva	-10.9768
▁kirIwa	-10.9768
pare	-10.977
lita	-10.9771
▁syAd	-10.9772
▁SAs	-10.9772
▁BrAtrA	-10.9774
▁duhitA	-10.9774
▁puM	-10.9775
upetaH	-10.9777
▁vanya	-10.9777
▁praRetA	-10.9779
AkASam	-10.978
DyAna	-10.9784
mandire	-10.9785
▁anftam	-10.9786
▁AtmArAma	-10.9788
▁cAl	-10.9788
nimba	-10.9789
▁yAja	-10.9789
▁samanu	-10.9792
nAmake	-10.9792
▁prAya	-10.9792
AdiByaH	-10.9793
▁ityukte	-10.9795
▁pf	-10.9795
rAjy	-10.9796
niDi	-10.9797
▁Sizwa	-10.9797
▁dvA	-10.9799
ayo	-10.9799
atyarTam	-10.9801
▁karRA	-10.9801
kartum	-10.9802
vand	-10.9803
▁asam	-10.9803
DAriR	-10.9805
praveSa	-10.9805
AQyam	-10.9805
dana	-10.9805
koRa	-10.9806
dvizaH	-10.9806
jAnAm	-10.9809
yayO	-10.9809
ozaDi	-10.9809
Avfta	-10.9809
▁imAn	-10.9813
▁gaReSa	-10.9814
krIq	-10.9815
leRq	-10.9815
cezwA	-10.9815
gatyA	-10.9817
aBAva	-10.9817
▁AdarSa	-10.9817
▁Srotra	-10.9818
▁AScarya	-10.9819
▁nikzipya	-10.9821
▁yaSo	-10.9821
▁tataSca	-10.9823
▁SayAnam	-10.9824
yikA	-10.9825
patya	-10.9825
vahA	-10.9829
gupt	-10.9829
sad	-10.983
▁lAkzA	-10.9832
dEva	-10.9832
jIvana	-10.9833
▁darSanAt	-10.9837
ISAnam	-10.9841
▁ruDiram	-10.9842
▁kapota	-10.9843
▁SlakzRa	-10.9844
▁himAlaya	-10.9845
atyanta	-10.9845
▁sf	-10.9846
▁praSasta	-10.9846
kalpaH	-10.9847
▁mokzam	-10.9848
karaR	-10.9848
DAtuH	-10.985
▁yaj	-10.9851
cittaH	-10.9857
aparA	-10.9857
ADmAna	-10.986
▁Bezajam	-10.9862
nAg	-10.9863
▁prakASitam	-10.9863
amBasA	-10.9864
▁rAtriH	-10.9864
lohita	-10.9864
▁gfhasT	-10.9866
▁antargata	-10.9868
aDikatayA	-10.9868
▁kAvye	-10.9869
pro	-10.9869
▁aSvAn	-10.987
▁grAha	-10.9872
▁hitAya	-10.9873
urasi	-10.9873
▁Pe	-10.9876
▁kaTayAmi	-10.9877
▁udyamya	-10.9877
▁nihatAH	-10.9881
pOruz	-10.9883
▁sarvapraTama	-10.9886
Alokya	-10.9888
▁trayARAm	-10.9891
padI	-10.9892
laN	-10.9893
▁Ahatya	-10.9894
odanam	-10.9894
Sez	-10.9894
manasA	-10.9897
▁daSama	-10.9897
▁kuRqala	-10.9898
▁guhya	-10.99
Kil	-10.9901
tadEva	-10.9903
pippalI	-10.9903
▁parI	-10.9904
▁uktAH	-10.9906
▁DAvan	-10.9907
▁sTApya	-10.9908
aBraka	-10.9909
mbu	-10.991
▁kftyam	-10.9912
dvay	-10.9913
▁muYca	-10.9916
daDAti	-10.9917
avadat	-10.992
nAmikA	-10.9921
tvAya	-10.9922
▁mela	-10.9925
suta	-10.9926
zan	-10.9926
BaH	-10.9926
▁dozEH	-10.993
▁ISvar	-10.9931
aYjalim	-10.9931
▁muzwi	-10.9931
▁sarp	-10.9931
▁prAhiRot	-10.9931
▁kftAYjaliH	-10.9931
Anand	-10.9932
▁atiTi	-10.9934
sadfSam	-10.9936
vratA	-10.9937
lAm	-10.9937
muzwi	-10.9939
▁yavana	-10.9939
▁bAlakaH	-10.9939
inIm	-10.994
priye	-10.9942
acyuta	-10.9942
▁kapAla	-10.9942
agamat	-10.9943
▁viSrutaH	-10.9944
▁Kaga	-10.9946
▁aBiDA	-10.9949
▁kazAyaH	-10.9949
Bedam	-10.995
ev	-10.9954
▁rasAH	-10.9954
▁vyUha	-10.9954
SeKara	-10.9955
▁puzpam	-10.9955
yudDe	-10.9956
▁alaNkAra	-10.9957
kzOdra	-10.9957
Asya	-10.9957
▁hom	-10.9958
vrate	-10.996
▁bAD	-10.996
nApi	-10.996
kArakam	-10.996
▁samparka	-10.996
ganDam	-10.9961
Cinna	-10.9961
Anantaram	-10.9961
kowa	-10.9963
kU	-10.9964
▁jvalan	-10.9965
▁kvATa	-10.9966
▁Sava	-10.9968
▁asamarAjy	-10.9968
BaktaH	-10.997
▁gagana	-10.9972
▁sAntva	-10.9974
▁yAnam	-10.9979
▁kasmin	-10.9981
nDa	-10.9982
▁liNg	-10.9983
▁maDyamA	-10.9984
▁mandira	-10.9984
▁ADAreR	-10.9985
▁BavizyAmi	-10.9986
▁DiyaH	-10.9987
▁avatAra	-10.9987
▁vaDU	-10.9988
▁liptvA	-10.9988
AcAryeRa	-10.9988
grahA	-10.9989
▁setu	-10.9989
▁BItAH	-10.9991
Acakzva	-10.9992
▁mahAkAvya	-10.9993
▁aNg	-10.9993
Srit	-10.9994
▁jayam	-10.9996
sTO	-10.9996
lAt	-10.9996
▁vihAra	-10.9998
prakriyA	-11.0001
▁rAjanEtika	-11.0001
gama	-11.0001
▁vaktram	-11.0003
Dar	-11.0004
Slok	-11.0004
▁pARqavey	-11.0005
mukti	-11.0005
▁guha	-11.0006
▁SAstre	-11.0006
pfzW	-11.0007
WA	-11.0009
▁padByAm	-11.001
▁lakz	-11.0011
drumaH	-11.0012
jYAnena	-11.0014
PalEH	-11.0014
paSu	-11.0015
pravftti	-11.0017
▁yonim	-11.0019
vIkzaRIyasTalAni	-11.002
uhya	-11.0022
▁cikzepa	-11.0022
▁kzem	-11.0023
▁vihitaH	-11.0024
hotra	-11.0025
▁uttar	-11.0025
banDana	-11.0027
fR	-11.0027
▁paScimadiSi	-11.0028
▁palA	-11.0028
Na	-11.0029
▁kAmanA	-11.0029
▁adBiH	-11.0029
etya	-11.0032
jIr	-11.0032
nASinI	-11.0037
gamana	-11.0037
▁vyAp	-11.0039
BAgasya	-11.0039
▁Alokya	-11.0039
▁anugraha	-11.0039
▁kAvy	-11.0039
▁DarmataH	-11.004
▁vESyaH	-11.0043
saMBavA	-11.0043
▁sAraTim	-11.0044
▁saKe	-11.0046
diti	-11.0048
▁tiktam	-11.0049
paNk	-11.005
ESvarya	-11.005
Binn	-11.0051
▁devadeva	-11.0051
▁anyasya	-11.0055
▁DAra	-11.0057
Sukla	-11.0058
▁darSanIya	-11.0058
▁vfzyam	-11.0059
yamAna	-11.0066
▁dozam	-11.0066
▁trayI	-11.0069
▁kaSyapaH	-11.0069
▁snigDaH	-11.007
badDaH	-11.0072
nAla	-11.0073
aNgEH	-11.0073
dakziRA	-11.0076
Ajyam	-11.0076
▁sambanDa	-11.0077
▁haMsaH	-11.0078
vaktrA	-11.008
▁grahAH	-11.008
dvAdaSa	-11.0082
rTA	-11.0083
Ir	-11.0086
▁udara	-11.0087
▁himavat	-11.0087
kroSa	-11.0087
Gaw	-11.0088
maDyA	-11.0089
jitaH	-11.0089
▁araRye	-11.009
▁aprati	-11.0092
tadvat	-11.0093
▁Kal	-11.0095
▁anyezAm	-11.0098
▁meDAvI	-11.0098
▁kuS	-11.0098
▁cE	-11.0099
▁maDyama	-11.0102
mfttikA	-11.0102
▁liKitavAn	-11.0103
darSanaH	-11.0107
SAnta	-11.0108
loham	-11.0108
unnata	-11.0109
mara	-11.0111
Sasya	-11.0113
snAna	-11.0113
▁viBUti	-11.0115
harati	-11.0115
mAlI	-11.0116
jYAnAt	-11.0117
SudD	-11.0118
laBya	-11.012
magna	-11.0121
▁atyaDika	-11.0121
▁vistAra	-11.0121
agneH	-11.0122
kftAm	-11.0126
▁som	-11.0126
▁Gftena	-11.0127
▁parvatasya	-11.0127
ayAmi	-11.0128
▁utkfzwa	-11.013
aruci	-11.0132
viDAnena	-11.0133
▁dAsya	-11.0134
▁aDarmaH	-11.0134
▁samfdDa	-11.0136
▁kzap	-11.0138
aBrakam	-11.0141
aBAvaH	-11.0141
▁gaganam	-11.0142
▁nfpati	-11.0142
▁nityaH	-11.0142
gAtra	-11.0142
▁kzoBa	-11.0143
▁kUrma	-11.0144
▁SitEH	-11.0145
prApteH	-11.0147
dIpikA	-11.015
▁vyAkartu	-11.0152
▁smftvA	-11.0152
▁pAcayet	-11.0152
▁vasavaH	-11.0153
jO	-11.0153
▁atratyA	-11.0156
▁pacy	-11.0158
yojanam	-11.0159
Bar	-11.0159
▁saMpra	-11.016
gacCa	-11.016
▁sArDa	-11.0162
upamAH	-11.0162
citA	-11.0166
udaram	-11.0167
▁marIci	-11.0167
▁mahimA	-11.0169
eSvar	-11.0169
▁Barat	-11.0173
▁svid	-11.0173
pIqitaH	-11.0174
BUzitam	-11.0175
▁jAn	-11.0178
▁anyAH	-11.0178
▁AdityaH	-11.018
waH	-11.018
vikraya	-11.0181
▁catasraH	-11.0182
puRyam	-11.0182
antI	-11.0183
viMS	-11.0183
balEH	-11.0184
▁santu	-11.0184
▁Baktim	-11.0185
yoniH	-11.0187
▁ag	-11.0187
▁svarg	-11.019
▁roca	-11.0191
sambadDAH	-11.0191
vizwa	-11.0193
gni	-11.0195
▁DarmAH	-11.0196
varDana	-11.0196
▁Ayuz	-11.0198
pitAmah	-11.0198
taye	-11.02
▁mantriRaH	-11.0201
▁rAGavam	-11.0201
▁udyoga	-11.0201
pUjitaH	-11.0201
hataH	-11.0202
yama	-11.0202
sahitA	-11.0203
▁apatat	-11.0204
SAn	-11.0204
pIqA	-11.0205
vel	-11.0205
▁ny	-11.0206
▁kazwam	-11.0208
▁So	-11.0208
▁vastrARi	-11.0212
purasya	-11.0214
▁antara	-11.0215
▁kfcCrAt	-11.0215
▁paWet	-11.0215
▁nirmitavAn	-11.0216
▁rudrasya	-11.0218
hAraH	-11.0218
▁azwama	-11.0219
inDana	-11.0219
itavyam	-11.022
▁yaTAkAmam	-11.022
▁mantrAH	-11.022
indreRa	-11.0221
karmaBiH	-11.0221
▁C	-11.0222
▁varz	-11.0222
kurvanti	-11.0224
▁dfzwAH	-11.0224
▁suprasidDa	-11.0225
gacCan	-11.0226
rAtri	-11.0228
▁pakzasya	-11.0231
gAmi	-11.0231
▁pUrv	-11.0232
DyAye	-11.0232
vu	-11.0236
▁aBAvaH	-11.0237
prIti	-11.0237
▁yozitaH	-11.0237
trApi	-11.024
abruvan	-11.024
▁vedezu	-11.0241
▁BAzaRa	-11.0241
▁Ga	-11.0244
▁purAR	-11.0245
BAzAsu	-11.0246
saMbanD	-11.0246
kuRqa	-11.0247
▁kumB	-11.0248
pramARena	-11.0255
▁juhoti	-11.0255
arditaH	-11.0256
Asyam	-11.0261
▁ambA	-11.0261
dUz	-11.0262
▁rahasi	-11.0264
▁divyEH	-11.0264
▁aDastAt	-11.0266
▁AgatavAn	-11.0267
darSinaH	-11.0268
▁deveByaH	-11.0269
cakzuH	-11.0269
▁kutracit	-11.027
▁mahABArate	-11.0271
nirdeSa	-11.0271
eSvarI	-11.0271
plava	-11.0271
▁deyaH	-11.0272
▁hrasva	-11.0273
AvaraRa	-11.0273
Aram	-11.0274
viSAradaH	-11.0276
▁vikalpa	-11.0276
sTApana	-11.0277
sAgare	-11.0277
aKila	-11.0277
SApa	-11.0278
UcuH	-11.0278
mard	-11.0278
AvftaH	-11.0278
icCasi	-11.0279
utsav	-11.0279
nal	-11.0279
▁BARqa	-11.0281
▁dfQ	-11.0282
DAt	-11.0283
hatya	-11.0286
arDena	-11.0287
▁tfp	-11.0287
avekzya	-11.0287
ruci	-11.0288
▁vimalA	-11.0289
Pe	-11.029
asurAH	-11.0291
kawu	-11.0291
ahaM	-11.0292
▁aDikAH	-11.0292
▁kzip	-11.0294
vikalp	-11.0294
▁putrEH	-11.0294
▁SItaH	-11.0295
▁sUryA	-11.0296
sampradAya	-11.0298
▁prasannA	-11.03
sImA	-11.0301
▁PA	-11.0301
▁vyasan	-11.0301
▁dahet	-11.0304
apaH	-11.0305
kurvat	-11.0308
puMgava	-11.0308
kAmyay	-11.0309
▁kuNkuma	-11.031
nivftt	-11.0314
▁tvak	-11.0315
▁av	-11.0315
▁hindI	-11.0316
Sayana	-11.0317
mArgam	-11.0319
▁prezayAmAsa	-11.032
▁jetum	-11.0321
sAhitye	-11.0321
▁sAkam	-11.0322
▁grahaRI	-11.0323
▁sUcita	-11.0323
▁cEtanya	-11.0324
▁parivAra	-11.0324
Dvaj	-11.0326
imAni	-11.0327
pAr	-11.0327
kArakaH	-11.033
aDyakz	-11.033
▁pAde	-11.0331
▁dvijAn	-11.0337
vAhya	-11.0337
rud	-11.0338
nirvft	-11.0339
AkarRya	-11.034
laBa	-11.0341
▁yAtaH	-11.0342
▁kftya	-11.0348
nATena	-11.0349
kzIrEH	-11.0351
▁dUt	-11.0354
▁patnyAH	-11.0355
nuguRaM	-11.0355
yAnti	-11.0356
▁pUra	-11.0356
daRqaH	-11.0358
SAt	-11.0358
▁kozWa	-11.0359
▁raTEH	-11.0363
▁grAmasya	-11.0364
▁pravfdDa	-11.0364
▁mandara	-11.0365
aMsa	-11.0368
upamA	-11.0368
▁BAnu	-11.0369
▁nAsikA	-11.0371
▁Bakza	-11.0371
▁uttizWa	-11.0372
▁dI	-11.0374
▁kfTAH	-11.0377
▁maryAdA	-11.0378
▁tAtparyam	-11.0381
ApyAy	-11.0382
▁vivaraRaM	-11.0383
▁brAhmaRI	-11.0383
▁kzep	-11.0384
▁agAt	-11.0386
▁smar	-11.0386
sEn	-11.0387
dAruRA	-11.0387
raRA	-11.0388
yoDa	-11.0388
BaktyA	-11.0389
▁saMdehaH	-11.039
▁paSUnAm	-11.0392
▁kuYjara	-11.0392
puzpam	-11.0393
rogaH	-11.0393
▁gad	-11.0394
nidrA	-11.0397
▁azwame	-11.0397
▁padavI	-11.0399
▁jagatI	-11.0401
▁kIwa	-11.0401
aYjanam	-11.0401
vyUha	-11.0402
ApekzayA	-11.0403
gatasya	-11.0404
tanuH	-11.0405
arRavam	-11.0406
viDAn	-11.0408
bAhum	-11.0409
suhfd	-11.0411
▁prAdur	-11.0412
▁strIzu	-11.0415
aTo	-11.0415
▁tAdfSaH	-11.0416
jag	-11.0416
▁mayam	-11.0416
mayIm	-11.0416
▁kASi	-11.0418
▁snAn	-11.0418
jahAra	-11.0419
▁vibuDa	-11.0419
▁viraha	-11.0422
sTApanam	-11.0422
▁antarA	-11.0422
▁ripu	-11.0424
nASaH	-11.0424
Adeva	-11.0427
sarp	-11.0427
▁pravAha	-11.0429
al	-11.0429
▁vAsudevam	-11.043
pizwi	-11.043
rUQ	-11.0431
▁praSAs	-11.0431
▁itop	-11.0431
hiMs	-11.0432
paryanta	-11.0434
antaraDIyata	-11.0434
▁iRqiyA	-11.0434
▁pArTivAH	-11.0434
▁hal	-11.0435
▁sAram	-11.0436
Sabdam	-11.0436
▁rahaH	-11.0437
▁taruRa	-11.0437
▁jYAtavAn	-11.0438
cUrRitam	-11.0438
aYca	-11.0438
▁asu	-11.0438
AvizwaH	-11.0441
▁sanatkumAraH	-11.0441
vaktavya	-11.0442
ucC	-11.0442
ArtAH	-11.0443
budDyA	-11.0443
▁vfkzasya	-11.0443
▁ityucyate	-11.0445
viSez	-11.0445
Dft	-11.0446
kfcCra	-11.0446
kzoB	-11.0447
▁AcAry	-11.0448
oGEH	-11.0448
acCa	-11.0449
vizayA	-11.045
graham	-11.045
▁upEti	-11.0454
atIva	-11.0454
vyavahAr	-11.0458
▁upalaBya	-11.046
AS	-11.046
tfz	-11.0463
manTa	-11.0463
roma	-11.0463
din	-11.0465
kftvA	-11.0466
▁vfzA	-11.0468
▁vEzRava	-11.047
saptati	-11.0471
▁Daman	-11.0473
vikAsa	-11.0475
▁nawa	-11.0476
AcAry	-11.0476
budDayaH	-11.0476
▁kzata	-11.0477
▁ato	-11.048
▁Asana	-11.0481
rahita	-11.0481
▁mAkzika	-11.0481
▁vakzyati	-11.0484
AraBya	-11.0484
▁atyantam	-11.0485
▁vihita	-11.0486
▁snuhI	-11.0487
▁paYcaviMSati	-11.0488
SUl	-11.0489
▁sattvAnAm	-11.0489
kin	-11.049
kola	-11.049
boDi	-11.0491
▁SItalam	-11.0491
aDikavivaraRArTa	-11.0492
▁vEvasvata	-11.0494
medaH	-11.0494
tAyAM	-11.0495
▁dahati	-11.05
▁vasti	-11.0501
jYAnA	-11.0502
▁dO	-11.0502
▁yoDAH	-11.0504
kfzwa	-11.0504
▁mahAsattvaH	-11.0505
yokt	-11.0506
tritaya	-11.0506
Ayatana	-11.0507
pAlana	-11.0508
kas	-11.0509
▁nIca	-11.0509
kfzRA	-11.0513
aDyAya	-11.0516
▁Svetam	-11.0517
arcanam	-11.0518
BAvi	-11.0519
▁mUtram	-11.052
▁KA	-11.0521
saMgrahaH	-11.0523
▁fzeH	-11.0523
▁iwalI	-11.0524
▁yogi	-11.0524
▁acala	-11.0525
YC	-11.0525
▁panTAH	-11.0525
Arta	-11.0526
▁vAyum	-11.0527
nAnA	-11.0529
▁gotra	-11.0529
gAtr	-11.053
nAd	-11.0531
▁ArADya	-11.0531
praDAnA	-11.0532
upacAra	-11.0533
▁en	-11.0534
vipra	-11.0535
saMyoga	-11.0537
▁Sarma	-11.0538
sfj	-11.0539
nAyaka	-11.054
▁asakft	-11.0541
▁viDAnena	-11.0542
lakzmaRa	-11.0542
▁Atman	-11.0542
▁racayitA	-11.0543
sEnya	-11.0547
▁aSvatTAmA	-11.0549
▁jalena	-11.0551
ine	-11.0551
cakrire	-11.0552
mfta	-11.0553
▁udyama	-11.0553
▁etayA	-11.0554
▁ani	-11.0554
▁kurvatI	-11.0555
▁DU	-11.0556
▁mIwar	-11.0558
jIvan	-11.0559
▁adfSya	-11.0559
ISvar	-11.056
saMGa	-11.056
▁suvrata	-11.0561
▁pAvakam	-11.0561
payaH	-11.0561
▁anuBUta	-11.0562
▁tU	-11.0562
SarIrA	-11.0563
▁kadamba	-11.0564
llA	-11.0566
▁deyA	-11.0569
petuH	-11.0569
▁kapilaH	-11.0569
kka	-11.057
▁suKena	-11.0571
SayyA	-11.0572
▁pUrRe	-11.0572
asfk	-11.0573
viBAgaH	-11.0573
arTinaH	-11.0573
padArT	-11.0575
▁amerikAdeS	-11.0575
haH	-11.0576
nayan	-11.0576
vAk	-11.0576
nAmnI	-11.0577
utTA	-11.0578
▁Or	-11.0579
▁Brazwa	-11.0579
cArya	-11.0579
nagarezu	-11.0579
dveza	-11.0579
hatAH	-11.0579
samAveS	-11.058
adfSyata	-11.058
▁yAjYavalkya	-11.0582
puwEH	-11.0583
arTezu	-11.0584
▁astam	-11.0585
▁varD	-11.0585
▁yajet	-11.0586
▁fju	-11.0589
▁BojanaM	-11.0591
vistara	-11.0591
varzA	-11.0592
vIta	-11.0593
zv	-11.0593
▁mahArAja	-11.0594
▁praBavati	-11.0594
dattam	-11.0595
ArADana	-11.0595
ArabDa	-11.0595
SaMsa	-11.0597
▁mahiz	-11.0597
▁Pr	-11.0598
imaM	-11.0598
▁gireH	-11.06
gAra	-11.0601
kalpita	-11.0601
▁prOQa	-11.0603
kzo	-11.0603
Brama	-11.0604
▁prer	-11.0604
enAn	-11.0605
▁mfgayA	-11.0607
▁sADvI	-11.0608
▁nAmataH	-11.0608
jja	-11.0608
▁nitAnta	-11.0608
▁sTAp	-11.0608
krAnti	-11.0609
▁vindati	-11.0611
saMskfteH	-11.0611
▁guravaH	-11.0612
▁saMskAr	-11.0612
▁vipulA	-11.0612
viroDi	-11.0613
▁kftavarmA	-11.0613
▁pramuKanagar	-11.0613
saMsTitA	-11.0614
▁pramuKA	-11.0614
utTAna	-11.0614
▁pARquH	-11.0616
▁SukraH	-11.0616
harzaRa	-11.0616
▁mana	-11.0619
▁vicaran	-11.0621
▁praviSati	-11.0622
saMniBam	-11.0623
▁vyakti	-11.0624
▁budDaH	-11.0624
▁nepAla	-11.0624
zWa	-11.0624
lola	-11.0625
▁samarpita	-11.0625
puwe	-11.0625
dUzaRa	-11.0625
▁cintayAmAs	-11.0626
▁tAq	-11.0628
▁raTinA	-11.0628
▁suhfdAm	-11.0629
pAramitA	-11.063
sTAnasya	-11.063
kzIreRa	-11.0632
▁Suklapakz	-11.0632
▁OzaDa	-11.0632
▁bE	-11.0633
▁sUryam	-11.0634
▁sfja	-11.0636
▁skanDa	-11.0638
▁raTAn	-11.0639
abda	-11.064
▁rakzati	-11.0642
dozAH	-11.0643
Ap	-11.0644
▁dig	-11.0644
▁svarUpam	-11.0646
▁rAkzas	-11.0646
▁nAr	-11.0647
zwO	-11.0649
▁tAsA	-11.065
kAryakram	-11.0652
▁svAtantry	-11.0653
▁aTarva	-11.0655
▁duzkaram	-11.0655
nirmAR	-11.0657
dvitIya	-11.0658
▁sUt	-11.0658
mADyamen	-11.066
ASritAH	-11.0661
▁pakzaH	-11.0662
▁bAlAH	-11.0664
▁puraH	-11.0665
▁kvApi	-11.0666
▁kAnicana	-11.0666
▁devayAnI	-11.0666
vaD	-11.0666
▁viSvAmitra	-11.0666
▁tIrTaNkar	-11.0667
▁sAmprataM	-11.0668
▁mAnuzam	-11.0668
▁grahaRam	-11.0669
▁upADi	-11.067
stamB	-11.067
▁pradIp	-11.067
▁jin	-11.0671
SravaRa	-11.0671
▁navIna	-11.0672
kzit	-11.0673
janita	-11.0676
vallaBa	-11.0677
sambanDa	-11.0681
kavac	-11.0682
jananam	-11.0685
netrA	-11.0687
▁SivAya	-11.0688
▁ojasA	-11.0688
▁kzara	-11.0688
kuRqala	-11.069
▁vipram	-11.0691
▁varRAH	-11.0692
kf	-11.0692
vegam	-11.0693
▁giriH	-11.0693
▁kiMtu	-11.0697
▁kAryasya	-11.0698
▁pakziRaH	-11.0698
▁saMSoDan	-11.0698
▁guRavat	-11.0703
▁vahan	-11.0705
▁ajAta	-11.0707
▁Pi	-11.0708
▁vimala	-11.0709
▁ADAra	-11.071
krAm	-11.071
camU	-11.0713
rUpiRaH	-11.0713
vartinaH	-11.0713
AyAsa	-11.0713
▁mil	-11.0714
▁DAtavaH	-11.0714
▁gfhItaH	-11.0716
▁taptam	-11.0716
▁amum	-11.0716
▁garj	-11.0722
▁SakyA	-11.0731
▁sampUrRe	-11.0731
atIsAra	-11.0732
▁yuktyA	-11.0733
vilAs	-11.0734
▁anuBava	-11.0735
▁vahanti	-11.0737
juz	-11.0738
vEdya	-11.0739
kalka	-11.074
▁maRqal	-11.0742
▁BImasya	-11.0743
▁vanAni	-11.0745
veSa	-11.0746
▁BIzmasya	-11.0746
tftIya	-11.0748
▁mUzAyAm	-11.0749
rq	-11.0752
▁mokz	-11.0754
golaka	-11.0759
avyakta	-11.076
danti	-11.0761
dD	-11.0761
kASa	-11.0762
tIvra	-11.0766
▁viroD	-11.0768
▁avApa	-11.0768
▁liKitaH	-11.0769
SikzaRa	-11.0769
▁aDva	-11.077
svam	-11.077
▁nayet	-11.0771
▁kftyA	-11.0772
vaktra	-11.0774
▁smAr	-11.0775
kriyate	-11.0775
ucitA	-11.0775
▁lubDa	-11.0777
palA	-11.0779
yuktEH	-11.078
svinna	-11.078
kaRA	-11.0781
▁vEkuRWa	-11.0785
uttamEH	-11.0785
▁pUjan	-11.0785
▁sarpaH	-11.0785
sAhasra	-11.0786
▁vikAsaH	-11.0786
▁sadasya	-11.0786
kAro	-11.0788
odana	-11.0788
▁magaDa	-11.079
Pale	-11.0792
saK	-11.0792
▁cod	-11.0793
▁Baratasya	-11.0793
▁dakziRena	-11.0794
vijYAnam	-11.0795
▁fzim	-11.0796
▁mAt	-11.0797
rakzitA	-11.0798
▁puRye	-11.0799
karm	-11.0799
▁pratizWitaH	-11.08
daMzwra	-11.08
▁rUpaka	-11.0803
▁arTAn	-11.0805
gatEH	-11.0805
hftya	-11.0806
▁brahmaRe	-11.0806
▁yaTAsuKam	-11.0806
praveS	-11.0809
▁keSAn	-11.081
viBUzita	-11.0812
karRaH	-11.0814
▁prakIrtitaH	-11.0814
▁saptA	-11.0814
sADu	-11.0815
mahApurARe	-11.0816
cikitsitam	-11.0818
yug	-11.0818
marica	-11.082
▁niyamaH	-11.082
Bavizyati	-11.0824
DAny	-11.0826
▁pArTasya	-11.0827
▁vinir	-11.083
Yci	-11.0831
aDikA	-11.0832
▁uparizwAt	-11.0832
▁aDyayanam	-11.0833
BAvAH	-11.0835
▁dagDA	-11.0835
vaS	-11.0836
▁mU	-11.0836
varge	-11.0839
Una	-11.0841
janena	-11.0842
BUzaRa	-11.0842
dalam	-11.0843
leK	-11.0843
▁viSvavidyAlaya	-11.0843
▁rAjakIya	-11.0845
ucCrita	-11.0846
prasidDAni	-11.0847
cAriRI	-11.0847
wana	-11.0848
▁gopI	-11.0849
▁vArzReya	-11.0849
▁BAraH	-11.085
vyAkaraRa	-11.0851
▁brahmahatyA	-11.0852
digDa	-11.0852
▁viBIzaRaH	-11.0852
▁veSma	-11.0853
▁SizyAH	-11.0853
uka	-11.0853
▁duHKena	-11.0853
▁kramaSas	-11.0854
▁sAMskftika	-11.0855
▁avatIrya	-11.0857
▁gaNgAm	-11.0859
SAnt	-11.086
uttame	-11.086
aDyAyam	-11.086
▁puzpEH	-11.0862
lAB	-11.0863
DanvA	-11.0866
utTitA	-11.0868
pUrRam	-11.0868
cakzuz	-11.087
aDizW	-11.0871
▁nivarta	-11.0871
▁banDanam	-11.0872
rAzwr	-11.0872
sadA	-11.0872
uc	-11.0872
▁tretA	-11.0872
▁uBayam	-11.0872
▁tanU	-11.088
▁pAYcAlAn	-11.0881
▁sADanam	-11.0881
▁prakASitA	-11.0881
SiKar	-11.0882
Aharat	-11.0883
kzaH	-11.0885
▁samup	-11.0886
diSi	-11.0887
cCid	-11.0888
▁parivartan	-11.0889
bADa	-11.0889
jYAnasya	-11.0893
Sreyas	-11.0894
niScayaH	-11.0894
tulyA	-11.0895
saNgIta	-11.0897
mAnasAH	-11.0897
▁nadyAH	-11.0899
vegena	-11.0899
muKAn	-11.0902
Suzka	-11.0903
▁BAratasarvakAr	-11.0904
icCa	-11.0905
▁mahABAzya	-11.0906
▁sTitikAla	-11.0906
▁AramBe	-11.0908
zazwi	-11.0909
▁kimarTa	-11.0909
mArayet	-11.0909
▁cetanA	-11.091
▁nivedya	-11.0911
▁baBAze	-11.0911
▁mAlya	-11.0911
▁yAhi	-11.0911
▁muYcati	-11.0911
▁prAptiH	-11.0913
▁brahmacarya	-11.0914
▁BaradvAjaH	-11.0916
▁kAzWA	-11.0916
dvA	-11.0917
▁patnyA	-11.0918
candraH	-11.092
▁sUtram	-11.0921
jawA	-11.0923
janmA	-11.0924
▁SudDim	-11.0924
▁Silp	-11.0925
aByaDika	-11.0929
kampa	-11.0929
citraka	-11.0929
▁ramaRIya	-11.093
dattasya	-11.0933
sanniBa	-11.0934
nirmit	-11.0934
kruD	-11.0934
▁ojaH	-11.0936
▁nivas	-11.0937
Goram	-11.0937
saNGasya	-11.0939
akAle	-11.0942
rAw	-11.0942
▁dehasya	-11.0943
▁tara	-11.0943
Pena	-11.0944
trE	-11.0944
muKena	-11.0944
amAtya	-11.0945
▁janmani	-11.0949
▁Buktam	-11.095
rUQa	-11.0951
▁duHSAsana	-11.0951
▁prakASana	-11.0952
ravaH	-11.0953
▁amitra	-11.0954
▁naram	-11.0955
▁BAradvAja	-11.0956
samADi	-11.0956
gozWI	-11.0956
▁pratiSata	-11.0957
prajYA	-11.0957
▁viDAnam	-11.0958
▁netr	-11.0959
yAdi	-11.0959
▁gaj	-11.0959
▁pradeSezu	-11.0963
▁pracAra	-11.0963
▁gItAni	-11.0968
viDEH	-11.0969
AkAraH	-11.097
▁racitavAn	-11.097
anAmayam	-11.097
vAhinI	-11.097
▁Salyam	-11.0971
▁utpAdana	-11.0973
▁patayaH	-11.0973
▁prastAva	-11.0974
▁SElI	-11.0974
▁DarmarAj	-11.0975
avekz	-11.0975
▁antarikza	-11.0977
▁prAptavantaH	-11.0979
vaDe	-11.0981
▁pArTena	-11.0984
▁jYAtA	-11.0984
dIkzA	-11.0987
nAyak	-11.0988
aDikaH	-11.099
▁kola	-11.099
mitA	-11.0991
▁svAmin	-11.0993
nakzatre	-11.0994
▁sved	-11.0994
▁samudDftya	-11.0995
▁acintya	-11.0996
dAruRam	-11.1
Sita	-11.1
gaj	-11.1001
aSanam	-11.1001
▁mAGa	-11.1001
▁dAtA	-11.1004
prAsAd	-11.1006
kriyAm	-11.1008
tsu	-11.101
vartya	-11.1013
DUpa	-11.1014
gAminaH	-11.1014
adi	-11.1016
▁ruciH	-11.1016
▁nyasya	-11.1017
ASvAs	-11.102
▁nirvARam	-11.102
▁vah	-11.1021
rha	-11.1022
▁pawu	-11.1022
sanDi	-11.1025
▁sAmnA	-11.1026
RAn	-11.1026
▁sAtyakim	-11.1027
▁baha	-11.1027
▁nErft	-11.1027
▁pravAsa	-11.1029
▁SOrya	-11.1029
DAvan	-11.1029
▁SoDayet	-11.103
▁SmaSAna	-11.103
▁saMcintya	-11.1031
▁cintayet	-11.1035
Agamanam	-11.1036
ryam	-11.1036
AyayO	-11.1037
nAyakaH	-11.1037
▁nirmIya	-11.104
rakzaRa	-11.104
▁guRezu	-11.1041
▁paSyasi	-11.1042
mantrI	-11.1044
▁hU	-11.1046
▁tadAnIm	-11.1047
▁mal	-11.1047
▁deSezu	-11.1049
Ek	-11.105
▁caranti	-11.1051
pot	-11.1052
▁kare	-11.1052
ASritA	-11.1052
rajas	-11.1053
▁paramAtmanaH	-11.1054
▁pIqA	-11.1055
▁hindU	-11.1056
▁smaraRa	-11.1058
▁DarmAt	-11.1059
▁SAlva	-11.1063
upadeSa	-11.1063
▁raTAH	-11.1066
Ipsitam	-11.1066
traye	-11.1066
▁izwam	-11.1066
▁nIlam	-11.1068
fziRA	-11.107
pramuKAH	-11.1071
▁navaBiH	-11.1072
sUtre	-11.1074
vAhi	-11.1077
▁brAhma	-11.1079
deSena	-11.1079
▁gaNga	-11.108
tantre	-11.1081
jasya	-11.1081
citrA	-11.1081
SAl	-11.1082
▁divaH	-11.1082
pAya	-11.1083
kinI	-11.1084
▁jarman	-11.1085
▁vimukta	-11.1085
▁dasyu	-11.1085
▁vijitya	-11.1085
▁Pena	-11.1086
AyAM	-11.1086
▁tantr	-11.1087
▁Sast	-11.1088
▁bAhuByAm	-11.1089
▁akasmAt	-11.1089
citaH	-11.109
▁pArSvanATa	-11.109
▁dehinaH	-11.1092
vihAra	-11.1092
pArSve	-11.1093
▁pAYcAlAH	-11.1093
▁svAsTya	-11.1095
▁itihAsaH	-11.1096
stana	-11.1097
▁hAhA	-11.1097
▁sfjati	-11.1098
▁modate	-11.1098
▁Bavantu	-11.1099
varya	-11.11
upavizwa	-11.11
▁ak	-11.1104
▁mEtrI	-11.1105
▁virudDa	-11.1108
▁praSna	-11.1111
▁calati	-11.1111
kUw	-11.1112
▁kEkeyI	-11.1114
sTala	-11.1114
jar	-11.1114
IkaraRam	-11.1116
SAntaye	-11.1118
▁liK	-11.1118
NkA	-11.1118
▁dviSatADika	-11.1118
▁Sigru	-11.112
zvapi	-11.112
▁sTAnezu	-11.1121
▁vyavahAr	-11.1121
▁mfgA	-11.1122
▁Siro	-11.1122
▁girim	-11.1122
BUtiH	-11.1123
aty	-11.1123
▁haviz	-11.1124
▁rakzitA	-11.1125
AlaNkAr	-11.1128
▁BAgya	-11.1136
asy	-11.1141
vartma	-11.1141
▁vAdya	-11.1142
ArohA	-11.1143
▁keSavam	-11.1143
anugaH	-11.1144
kuru	-11.1145
▁niScitya	-11.1147
▁dakziRadiSi	-11.1148
▁icCatA	-11.1149
▁kzema	-11.1151
vinAS	-11.1152
▁duHKitaH	-11.1152
▁nazwA	-11.1153
Pu	-11.1153
▁janArdanam	-11.1153
jvaraH	-11.1153
▁gopyaH	-11.1154
Avir	-11.1155
pAW	-11.1155
hiMsA	-11.1157
▁prajApati	-11.1157
▁ityete	-11.1158
ANk	-11.1158
ABaraR	-11.1159
▁yozit	-11.1161
▁samIpasTaM	-11.1161
▁Atta	-11.1161
SaM	-11.1163
parIta	-11.1164
▁sUte	-11.1165
sundara	-11.1165
lokAt	-11.1165
▁advEta	-11.1167
▁kaRwak	-11.1169
Bezaj	-11.1169
▁sulaBa	-11.1172
▁paripUrRa	-11.1174
▁striyAH	-11.1176
▁ramBA	-11.1176
vyaT	-11.1177
▁svABAvika	-11.1177
▁KAna	-11.1177
▁vyAyAma	-11.1178
▁vaMS	-11.118
▁kanakam	-11.118
mud	-11.118
lIna	-11.1182
▁rAjaguru	-11.1182
kzu	-11.1182
prayojana	-11.1182
▁pAri	-11.1182
niBam	-11.1185
yajYaH	-11.1186
▁banDana	-11.1188
vimAnasTAnak	-11.1189
▁jahAra	-11.119
▁nandI	-11.119
▁paSyatAm	-11.1191
racan	-11.1193
gfhaM	-11.1194
▁ekaSatADika	-11.1198
BAs	-11.1198
udD	-11.12
▁aByetya	-11.1201
dAya	-11.1202
▁parvatam	-11.1204
▁Danur	-11.1205
▁Canda	-11.1208
pramAR	-11.1208
arRave	-11.1209
▁svIkaroti	-11.1209
▁ityetayoH	-11.1211
▁gItam	-11.1211
▁dvez	-11.1211
▁vfdDA	-11.1212
pul	-11.1214
▁saralatayA	-11.1214
▁munInAm	-11.1214
▁kurUn	-11.1214
saMBavam	-11.1215
sma	-11.1215
rudr	-11.1216
paramparAyA	-11.1217
▁avocat	-11.1218
Sv	-11.1218
▁pAvaka	-11.1219
▁mfDe	-11.122
tulA	-11.122
▁varRAnAm	-11.1221
▁SUnyam	-11.1222
aGa	-11.1223
Bede	-11.1224
vAsi	-11.1224
▁kazAyA	-11.1227
Alaye	-11.1228
▁avasara	-11.1228
▁pARqura	-11.1228
lep	-11.1228
yana	-11.1229
upEti	-11.123
sattam	-11.123
tyAgaH	-11.1232
▁vastram	-11.1233
▁DArmik	-11.1234
SoDana	-11.1235
▁kaliNga	-11.1235
DAraRam	-11.1235
karaM	-11.1236
▁padAni	-11.1238
▁jambu	-11.1239
rma	-11.1239
sfzwA	-11.124
yeva	-11.124
▁paR	-11.124
zva	-11.1241
qav	-11.1241
▁rAtrim	-11.1242
▁yazwi	-11.1243
jAraRa	-11.1244
sahita	-11.1245
vyAsa	-11.1245
▁praSAsana	-11.1246
▁BAr	-11.1246
▁kalka	-11.1247
dvAre	-11.1247
aNgAra	-11.1247
Adya	-11.1248
matsya	-11.125
avApnuyAt	-11.125
▁acintayat	-11.1251
▁guda	-11.1253
hfdayaH	-11.1254
prasaNge	-11.1255
vasuH	-11.1255
▁uccEs	-11.1257
▁kumuda	-11.1257
mitaH	-11.1258
BAvitam	-11.1258
tvad	-11.1258
▁paYcaDA	-11.1258
vyakti	-11.1259
▁mArutaH	-11.126
▁Sayana	-11.126
▁yAta	-11.1262
mAla	-11.1262
▁Samam	-11.1263
▁lakzyam	-11.1264
aBilAz	-11.1264
▁paW	-11.1265
▁janADipa	-11.1267
▁tAdfSI	-11.1268
tElena	-11.127
▁BAryayA	-11.127
tIrTamAhAtmya	-11.1271
tyeva	-11.1271
mft	-11.1272
cetAH	-11.1272
▁vimalam	-11.1272
▁sUcayati	-11.1273
lika	-11.1274
▁bas	-11.1274
▁yaSasA	-11.1275
▁nAyakaH	-11.1275
dvAdaS	-11.1275
▁naga	-11.1276
▁KaRq	-11.1276
ekatra	-11.1278
▁ukte	-11.1279
▁sw	-11.1282
▁sadasyAH	-11.1282
▁havya	-11.1286
uru	-11.1287
▁huta	-11.1287
arpita	-11.1288
▁janasya	-11.129
durgaM	-11.129
▁mUrDani	-11.1292
▁labDA	-11.1295
BAr	-11.1297
▁SArIra	-11.1297
sAre	-11.1298
azwA	-11.1299
▁prapraTama	-11.13
kalaSa	-11.13
ayanam	-11.1301
▁sambanD	-11.1301
▁pArTAH	-11.1301
▁marutaH	-11.1303
▁caturTaH	-11.1307
anDaka	-11.1307
siDd	-11.1307
▁snigDA	-11.1307
▁vEdyaH	-11.1308
sahitaH	-11.1308
▁Sabdam	-11.1309
▁asyA	-11.131
Agata	-11.131
▁Sarva	-11.1311
caritA	-11.1312
pAdapa	-11.1312
pyate	-11.1312
▁kroDam	-11.1314
▁vismayam	-11.1314
▁ramyam	-11.1315
ft	-11.1315
rRa	-11.1315
▁tripura	-11.1316
▁muKyAH	-11.1317
cittam	-11.1317
putrARAm	-11.1318
▁prAs	-11.1319
▁priyAm	-11.1321
▁vats	-11.1321
aDIna	-11.1322
▁caturDA	-11.1322
viMSat	-11.1328
▁sItAyAH	-11.1328
▁upekz	-11.1329
deham	-11.133
oBavat	-11.1331
▁patram	-11.1331
▁varAn	-11.1332
nty	-11.1332
▁deSAn	-11.1332
graheRa	-11.1333
▁dvijottamAH	-11.1333
▁vrIhi	-11.1333
upAyaH	-11.1334
▁virAjate	-11.1335
kendrARi	-11.1337
▁Garma	-11.1337
▁SI	-11.1337
kiraR	-11.1338
vAhanam	-11.1342
▁golakam	-11.1342
AnuguRaM	-11.1344
gotr	-11.1344
▁nivAraR	-11.1345
leKa	-11.1348
jY	-11.1349
paScAt	-11.135
BraMSa	-11.1351
kartuM	-11.1351
mahi	-11.1353
grAmAt	-11.1353
▁mahABAgA	-11.1353
deSaM	-11.1354
▁pUrvasmin	-11.1354
▁devezu	-11.1354
dfzwvA	-11.1358
▁prasAra	-11.1359
yatra	-11.1361
pAtana	-11.1362
▁paScimA	-11.1363
sAmAnya	-11.1364
pata	-11.1365
AdyA	-11.1365
antAH	-11.1365
haraRa	-11.1369
kArAt	-11.137
paTya	-11.137
vistaram	-11.137
▁piban	-11.1371
lipya	-11.1371
▁Sakram	-11.1372
zwaH	-11.1373
aDama	-11.1373
▁strIBiH	-11.1374
▁pIq	-11.1374
aguru	-11.1376
kzepaH	-11.1377
mAtuH	-11.1378
▁AkarRya	-11.138
vAsasaH	-11.1382
AD	-11.1382
▁medinI	-11.1384
BavatIti	-11.1385
divya	-11.1385
aNkura	-11.1386
Rya	-11.1387
▁kzut	-11.1389
▁vistIrRa	-11.139
odBav	-11.1391
janaka	-11.1391
nAwak	-11.1392
▁rUpya	-11.1392
SAsane	-11.1393
▁SfRvan	-11.1393
apsarasAm	-11.1396
gotra	-11.1396
▁caraRO	-11.1397
▁Suzkam	-11.1397
BrAnta	-11.1397
ayizyAmi	-11.1398
▁ASizaH	-11.1398
▁SUdrA	-11.1398
▁kaWora	-11.1399
ral	-11.1399
▁maNgalA	-11.14
▁Sakyante	-11.14
▁pravftta	-11.14
▁vAcyam	-11.14
ayya	-11.1403
puMgavaH	-11.1403
▁prapaYca	-11.1404
ruciH	-11.1404
▁samara	-11.1407
▁nirukta	-11.1409
▁jam	-11.141
▁govindaH	-11.141
praRIta	-11.1411
▁saMgfhya	-11.1414
antakam	-11.1414
▁pariRAm	-11.1415
dAyaka	-11.1415
▁udAharaR	-11.1415
ranDr	-11.1415
▁IS	-11.1417
▁kumAram	-11.1417
SUlam	-11.1417
Tu	-11.1417
▁gAQam	-11.1418
▁citr	-11.1418
hE	-11.1419
niyama	-11.142
kzAram	-11.1421
Srutam	-11.1421
▁anayoH	-11.1422
vedANga	-11.1422
▁Sikzaka	-11.1423
▁ambuja	-11.1423
samAja	-11.1424
ruru	-11.1424
TI	-11.1425
caram	-11.1427
▁visarj	-11.1427
fkza	-11.1428
nirmitA	-11.1428
etena	-11.1429
▁kftrima	-11.143
Kar	-11.143
SAH	-11.143
▁gAQa	-11.1432
dUta	-11.1434
pAdam	-11.1434
▁vyAKyAna	-11.1434
▁niyamAH	-11.1434
▁lAla	-11.1436
pUrvaM	-11.1437
granTA	-11.1437
▁vismaya	-11.1438
▁trElokyam	-11.1439
mahAnagara	-11.144
▁sAhAyyam	-11.1441
▁viBAgaH	-11.1441
▁pIWa	-11.1444
Sizye	-11.1446
▁putraka	-11.1446
▁mUQaH	-11.1446
▁pArTivam	-11.1447
▁ADyAtmika	-11.1447
mAnezu	-11.1447
pAkam	-11.1448
Sik	-11.1448
loB	-11.1448
pariRAma	-11.1449
▁vartamAnaH	-11.1449
mARA	-11.1449
nItam	-11.1449
miSram	-11.145
▁prakASate	-11.145
tarAH	-11.1451
▁Cando	-11.1451
▁DIrAH	-11.1452
ruDya	-11.1455
ek	-11.1456
Gor	-11.1458
waNkaRa	-11.1458
ASray	-11.146
▁calaccitre	-11.1461
▁dravEH	-11.1461
kzat	-11.1462
udakena	-11.1462
▁mitavEkramAbd	-11.1464
▁rata	-11.1464
▁kanyAH	-11.1465
▁amarza	-11.1465
ls	-11.1466
▁Sayanam	-11.1466
Asava	-11.1468
▁ISvarasya	-11.1469
▁aprameya	-11.1471
▁kamalA	-11.1471
▁AsIditi	-11.1472
niyata	-11.1472
▁pakz	-11.1474
kir	-11.1475
SaNkara	-11.1477
▁purARezu	-11.1477
Gftam	-11.1477
▁vAlukA	-11.1478
▁yaTAsvam	-11.148
▁sAmrAjya	-11.1481
▁adri	-11.1481
▁bahv	-11.1482
nAgam	-11.1483
svarupa	-11.1484
▁SAla	-11.1486
▁utpAdya	-11.1487
▁BAratIy	-11.1489
▁paRqitAH	-11.149
▁pfcCa	-11.149
▁paratra	-11.1491
▁kaveH	-11.1492
▁kza	-11.1493
vyavasAy	-11.1494
vAsam	-11.1495
▁Sokam	-11.1496
japa	-11.1498
▁Syena	-11.1498
▁hatyA	-11.1498
ujjvala	-11.1498
▁bAnDavAH	-11.1498
▁prahasya	-11.1499
▁Kaqgam	-11.1501
doh	-11.1502
Atmake	-11.1503
▁vAsavaH	-11.1503
▁pizwa	-11.1504
▁lU	-11.1506
▁grAm	-11.1507
lABa	-11.1507
DArI	-11.1507
▁pustake	-11.1508
puMs	-11.1509
vidyut	-11.151
utkarza	-11.151
vasTA	-11.1511
vApa	-11.1512
salila	-11.1513
baBO	-11.1513
Sezatas	-11.1515
varzEH	-11.1516
▁mahAmatiH	-11.1518
▁uzRam	-11.152
kAlIna	-11.152
▁kAmAt	-11.1522
▁aDyA	-11.1522
hrada	-11.1523
▁Bidyate	-11.1523
▁yogadAna	-11.1523
▁dAsyAmi	-11.1524
▁svIkftavAn	-11.1525
DIn	-11.1526
dy	-11.1526
SrezWAH	-11.1526
atiSaya	-11.1526
agrEH	-11.1528
Aropa	-11.1529
samIpa	-11.153
kUr	-11.153
yAd	-11.153
▁BrAm	-11.1531
AtmakaM	-11.1532
▁saMSita	-11.1534
tasmE	-11.1534
▁pArTAn	-11.1535
▁pariGa	-11.1535
kftiH	-11.1538
uSIra	-11.1538
▁pAhi	-11.1539
▁mArg	-11.1539
Agame	-11.1539
vIryA	-11.154
samBavaH	-11.1543
vyaya	-11.1543
muKA	-11.1545
▁mantre	-11.1545
GaRw	-11.1545
▁mAla	-11.1545
▁pravAla	-11.1547
▁matimAn	-11.1548
▁aDikAra	-11.1548
▁saMskftasya	-11.1548
AgatAH	-11.1548
▁GozaRA	-11.1548
▁mIna	-11.1549
darSI	-11.1549
▁samupasTit	-11.1549
▁ESvarya	-11.155
▁yantram	-11.1552
SO	-11.1553
▁jvalana	-11.1554
sarA	-11.1558
▁gO	-11.1559
▁hayAH	-11.1559
udyAna	-11.1562
yonO	-11.1562
nagarAya	-11.1563
▁paSyAmaH	-11.1563
pustak	-11.1563
▁SarAH	-11.1564
▁prayAti	-11.1566
▁SfRuzva	-11.1566
▁narake	-11.1566
▁lalAwa	-11.1566
▁mUl	-11.1566
▁toza	-11.1566
▁raSmi	-11.1566
▁kfzRAya	-11.1567
▁gAna	-11.1567
dIpti	-11.157
▁paryantam	-11.1571
▁rahasya	-11.1575
arTena	-11.1575
▁DIra	-11.1576
▁indreRa	-11.1577
▁sUtreRa	-11.1577
arAjyasya	-11.1578
jYAne	-11.1579
▁dAruRam	-11.1581
coditAH	-11.1583
kamala	-11.1584
▁drupada	-11.1585
▁kroSa	-11.1586
▁spfzwvA	-11.1587
▁vakzyAmaH	-11.1587
▁tisfBiH	-11.1587
▁viracita	-11.1587
▁vicakzaRaH	-11.1588
▁uttaradiSi	-11.1588
▁BIzmeRa	-11.1589
yAj	-11.1589
harz	-11.1589
▁punarnavA	-11.1589
▁praBava	-11.1589
parivartana	-11.1589
▁nalaH	-11.159
▁indram	-11.159
▁vAsam	-11.1591
▁karaRIyA	-11.1592
▁indu	-11.1592
dAne	-11.1593
▁cAya	-11.1593
▁viMSatiH	-11.1594
▁nAryaH	-11.1594
paYcA	-11.1594
▁maRqalAni	-11.1596
galita	-11.1596
▁aBigamya	-11.1596
▁varDa	-11.1596
mfzwa	-11.1598
lipta	-11.1599
▁spfS	-11.1604
▁vfkzaH	-11.1605
cira	-11.1605
pit	-11.1606
▁hantA	-11.1606
kapard	-11.1606
▁vEra	-11.1608
▁asan	-11.161
raRya	-11.161
niDiH	-11.1611
karmARam	-11.1611
DAraH	-11.1612
kftAn	-11.1614
▁avasTitam	-11.1614
bAh	-11.1615
Agni	-11.1616
mbA	-11.162
jAni	-11.162
raTO	-11.1621
▁pareRa	-11.1621
▁Sal	-11.1622
▁BAvitam	-11.1624
▁pUrRaH	-11.1625
prasUt	-11.1625
▁kramaH	-11.1625
▁suptA	-11.1626
grAha	-11.1627
▁banD	-11.1627
▁svasTa	-11.1627
janapad	-11.1629
▁Agamya	-11.1633
▁nfp	-11.1635
udayam	-11.1635
umA	-11.1636
ratn	-11.1636
▁sparSaH	-11.1636
yugma	-11.1637
▁maRqalezu	-11.1639
avartata	-11.164
prayAs	-11.164
pAS	-11.1641
▁supta	-11.1641
rUpAya	-11.1642
mAsam	-11.1645
▁sADak	-11.1647
granTAnA	-11.1647
▁yAna	-11.1649
caranti	-11.165
ArUQaH	-11.1651
jAtIya	-11.1652
banDe	-11.1653
caturT	-11.1653
arhA	-11.1653
▁mahatIm	-11.1653
▁vEdy	-11.1653
▁boDisattva	-11.1654
▁AraBata	-11.1655
▁BrAtarO	-11.1657
▁DyAyet	-11.1657
plutam	-11.1657
▁mftAH	-11.1657
Sarkara	-11.1658
▁vimAnam	-11.1658
Adri	-11.166
noti	-11.1661
▁muRq	-11.1661
▁samyag	-11.1661
tizWanti	-11.1662
▁vidyamAne	-11.1662
SarIram	-11.1662
ratiH	-11.1662
mfg	-11.1664
kavacam	-11.1664
▁samudre	-11.1664
▁Danva	-11.1665
droR	-11.1666
pradAnam	-11.1666
▁prAraBat	-11.1668
▁upAdAya	-11.1669
▁miT	-11.1669
▁tridaSa	-11.167
Sloka	-11.1671
AtmanAm	-11.1671
samAyuktam	-11.1673
▁gAyanti	-11.1674
▁Adya	-11.1674
▁campA	-11.1674
▁pAdam	-11.1675
kftI	-11.1675
kArEH	-11.1676
▁pratipAditam	-11.1678
vir	-11.1678
aNgezu	-11.1678
▁vIkz	-11.1678
▁mfg	-11.1679
trARi	-11.1681
ravA	-11.1682
Rqe	-11.1683
▁BArgavaH	-11.1685
acalaH	-11.1685
▁pradeSa	-11.1686
▁jYAnasya	-11.1687
tarka	-11.1691
▁sampradAya	-11.1693
▁din	-11.1693
▁Sakrasya	-11.1694
aYjali	-11.1696
▁ucC	-11.1697
▁vismitaH	-11.1698
▁Dfzwadyumna	-11.17
▁citaH	-11.17
▁akzaram	-11.1702
mUrteH	-11.1703
▁cezwA	-11.1704
nadyA	-11.1704
guptaH	-11.1705
▁rajatam	-11.1705
▁vivfta	-11.1707
▁Baw	-11.1707
▁vfzwiH	-11.1709
▁matsyaH	-11.171
Sruti	-11.1711
▁dakz	-11.1711
mAm	-11.1713
arTi	-11.1713
rUp	-11.1714
rogezu	-11.1714
▁SuSrAva	-11.1716
▁adadAt	-11.1717
▁jAgrat	-11.1717
▁GrARa	-11.1717
▁kaTyatAm	-11.1718
▁Ap	-11.172
muKAt	-11.172
▁saMhAra	-11.1721
▁brahmARqa	-11.1722
mUrt	-11.1722
vadana	-11.1722
vyavasTit	-11.1723
wak	-11.1723
ambunA	-11.1725
gaRam	-11.1726
▁rudan	-11.1726
▁Bawwa	-11.1726
aMSaH	-11.1728
sTalezu	-11.1729
▁sparD	-11.1731
ikAyAH	-11.1732
▁nirmitAni	-11.1734
pramARA	-11.1736
indriyam	-11.1736
ratAH	-11.1736
▁viKyAtA	-11.1737
▁padArT	-11.1738
prIt	-11.1739
▁vyAD	-11.1741
praBuH	-11.1742
▁dvE	-11.1743
upasaM	-11.1743
oda	-11.1743
▁vyApaka	-11.1748
taraNga	-11.1748
▁wi	-11.1749
sahasrEH	-11.1751
pUrR	-11.1752
▁rUkzA	-11.1753
▁vyavasAya	-11.1754
sTaM	-11.1754
▁SraddaDAn	-11.1755
ndA	-11.1755
cAraRa	-11.1756
▁ahamadAbAda	-11.1756
nitamb	-11.1756
AkulA	-11.1756
Goz	-11.1757
▁rAkzasAn	-11.1758
▁sTApitA	-11.176
tanaya	-11.1762
▁nindA	-11.1764
▁paryawan	-11.1765
cakrA	-11.1765
▁bu	-11.1766
darS	-11.1767
sahA	-11.1767
▁aDyayana	-11.1767
▁Avarta	-11.177
▁udak	-11.177
▁grahaH	-11.1772
▁sundaraM	-11.1773
ASva	-11.1773
▁daSame	-11.1774
mohaH	-11.1775
▁AhAr	-11.1776
▁DArtarAzwr	-11.1777
Bf	-11.1778
kalikA	-11.1778
Ahvayam	-11.1779
▁hastA	-11.1779
mUrDani	-11.178
▁anayat	-11.1782
▁dEtyAH	-11.1782
▁SanakE	-11.1782
▁mUrcCA	-11.1783
cetanA	-11.1783
▁dvAri	-11.1783
▁prakAr	-11.1784
sahAya	-11.1784
▁pariSrama	-11.1784
nivAsinaH	-11.1786
▁prapanna	-11.1787
▁AkarzaRa	-11.1789
▁akaTayat	-11.179
ver	-11.179
▁tilaka	-11.179
▁Sukti	-11.179
▁SAntam	-11.1791
BAn	-11.1793
▁varzARAm	-11.1793
kayA	-11.1794
maRq	-11.1796
vasare	-11.18
mARAH	-11.18
dena	-11.18
saNgrahAlayaH	-11.1801
jajYe	-11.1803
▁SArNga	-11.1804
▁ApnuyAt	-11.1804
▁BrU	-11.1805
▁saptamaH	-11.1807
▁varRitA	-11.1807
BUtasya	-11.1808
▁padavIm	-11.1809
▁Atmane	-11.181
vatsara	-11.181
sahasrARAm	-11.1811
▁gajAH	-11.1812
▁ali	-11.1812
vezwayet	-11.1814
▁cOra	-11.1814
pAp	-11.1815
avayav	-11.1815
▁KyAtA	-11.1816
dadyAt	-11.1817
▁mADavaH	-11.1817
▁yatnam	-11.1817
▁Paw	-11.1818
ozaDI	-11.1821
lE	-11.1821
jalapAt	-11.1822
rja	-11.1822
▁leKak	-11.1822
viBAg	-11.1824
BErav	-11.1826
▁sattA	-11.1828
karaRena	-11.1829
rBavati	-11.1829
▁satyavatI	-11.1829
dakziR	-11.183
▁DAtuH	-11.1831
▁kzam	-11.1832
▁ASaya	-11.1832
▁moda	-11.1835
▁moham	-11.1836
▁dyUta	-11.1837
▁sAgaram	-11.1838
GozeRa	-11.1839
SfRu	-11.184
▁anuvart	-11.1842
▁kANkz	-11.1842
▁SuSuBe	-11.1847
vivarjayet	-11.1848
▁tizWA	-11.1848
▁bAhU	-11.1849
▁nareSvara	-11.1849
cCeda	-11.1849
▁basti	-11.1849
▁dama	-11.1849
▁tapasi	-11.1852
▁veSyA	-11.1852
▁praRIta	-11.1852
▁parameSvara	-11.1853
▁bahvyaH	-11.1853
▁vajreRa	-11.1854
amftA	-11.1855
▁kAlidAs	-11.1856
▁kuYjar	-11.1856
▁sidDyat	-11.1857
rUpiR	-11.1857
sAyujya	-11.1857
▁SatruH	-11.1858
kAlAt	-11.1858
▁upaspfSya	-11.1859
▁praTamavAra	-11.186
daDyAt	-11.186
▁ApannaH	-11.1861
▁Baj	-11.1862
asam	-11.1863
bAl	-11.1864
▁saMhat	-11.1864
▁gaBIra	-11.1864
viSan	-11.1864
bAda	-11.1865
atirikta	-11.1866
kAraR	-11.1867
divasa	-11.1867
dfSyate	-11.1869
iRam	-11.1871
▁arDam	-11.1872
▁nijam	-11.1873
▁tulasI	-11.1873
divas	-11.1874
ukti	-11.1875
AtiTya	-11.1875
▁vo	-11.1875
vAcaka	-11.1876
▁tanayaH	-11.1877
dfSA	-11.1877
maDyaBAge	-11.1879
varD	-11.188
▁prasidD	-11.188
aDIt	-11.1885
▁haMs	-11.1887
basti	-11.1887
▁muKyA	-11.1887
▁veza	-11.1887
Bakza	-11.1888
▁Agantu	-11.1888
▁kftiH	-11.1889
garBe	-11.1889
▁aRqa	-11.1891
yaSaH	-11.1892
▁AhAraH	-11.1893
▁mahIpate	-11.1893
tIra	-11.1893
▁svedaH	-11.1894
samUh	-11.1897
▁Kalve	-11.1898
▁poza	-11.1899
senayA	-11.19
▁SaM	-11.19
▁prakzipya	-11.1901
pAte	-11.1901
▁akArayat	-11.1902
ambuja	-11.1904
pAzAR	-11.1907
arditAH	-11.1909
pac	-11.1909
▁prahlAda	-11.191
Bizaj	-11.1911
▁yamO	-11.1911
▁ayaH	-11.1913
▁mitrARi	-11.1913
▁GAta	-11.1913
▁saMSayam	-11.1914
tilaka	-11.1915
▁SastrARi	-11.1915
▁gfhARa	-11.1916
▁SirasaH	-11.1918
▁krimi	-11.1919
▁nirUpitA	-11.192
▁gl	-11.1921
jIvane	-11.1922
uditA	-11.1922
pras	-11.1922
DaH	-11.1922
anukamp	-11.1923
lihet	-11.1923
prARi	-11.1924
▁sampadyate	-11.1925
kumAraH	-11.1929
▁kuSal	-11.1929
saMDAna	-11.193
udData	-11.193
▁svaDA	-11.1932
▁niyataH	-11.1932
kriyAH	-11.1933
saMskAr	-11.1934
▁kaTana	-11.1935
KyAti	-11.1936
SAs	-11.1936
▁apaSyam	-11.1938
▁vasizWa	-11.1939
Alaya	-11.1939
▁dahan	-11.194
acala	-11.194
▁vedaH	-11.1942
srotas	-11.1942
▁il	-11.1944
BUzitA	-11.1945
▁prARam	-11.1945
▁dAqima	-11.1946
amasti	-11.1946
niSA	-11.1947
▁mUrKa	-11.1947
kalpe	-11.1948
▁padArTa	-11.1949
pucCa	-11.1951
mAyayA	-11.1952
▁anumati	-11.1952
▁SoDanam	-11.1952
▁ANgl	-11.1953
▁gaRqa	-11.1955
▁saMvatsaram	-11.1955
pattana	-11.1956
▁janamejaya	-11.1959
▁prayojana	-11.1959
▁pratipAd	-11.1961
▁aGa	-11.1962
▁kfcCram	-11.1962
pAti	-11.1965
▁nItaH	-11.1965
▁prapadye	-11.1966
▁mata	-11.1967
▁pratipad	-11.1969
daDi	-11.1969
▁vAsudevasya	-11.1971
BOtik	-11.1972
▁jitaH	-11.1973
▁viqa	-11.1974
aDikAra	-11.1974
▁vyaTA	-11.1978
▁maheSvara	-11.1981
▁sagara	-11.1982
▁gurO	-11.1982
riRA	-11.1983
▁yacCati	-11.1985
▁mADav	-11.1985
maNgal	-11.1985
▁mahiza	-11.1987
kArmuka	-11.1988
▁spfSet	-11.1988
padyate	-11.1989
▁damayantI	-11.199
kE	-11.1991
aSvAn	-11.1992
azwama	-11.1995
prARA	-11.1996
kARAm	-11.1997
gur	-11.1998
▁bale	-11.1998
nirmita	-11.1999
▁paryAya	-11.2001
rUkza	-11.2002
AnanaH	-11.2004
▁indriyARAm	-11.2005
▁padAti	-11.2005
buDaH	-11.2006
ntaM	-11.2006
▁sTiraH	-11.2006
deSAt	-11.2007
▁prayAga	-11.2008
▁locana	-11.2008
▁niveday	-11.201
▁zoqaS	-11.201
pAw	-11.201
▁rAjarziH	-11.2015
sfzwa	-11.2015
▁tenEva	-11.2016
▁varga	-11.2018
sadfSaH	-11.2019
▁mAtar	-11.2019
▁mahodayaH	-11.202
▁pramatt	-11.202
▁vAsA	-11.202
▁DyAn	-11.202
▁BaktaH	-11.2021
▁gfhRanti	-11.2021
▁varuRa	-11.2022
▁vimAnasTAnakam	-11.2024
▁nivfttaH	-11.2025
▁varma	-11.2026
▁pariBAzA	-11.2028
▁nyAsa	-11.203
▁pAS	-11.2031
patayaH	-11.2031
sEnyAnAm	-11.2032
▁atikramya	-11.2034
mArgAH	-11.2034
▁BErava	-11.2034
paYcASat	-11.2036
▁pARinIya	-11.2037
jIvi	-11.2038
▁sahodar	-11.2038
nAdam	-11.2039
aNgA	-11.204
▁cetasaH	-11.204
bde	-11.2041
▁udvaha	-11.2042
yuktAn	-11.2043
sADane	-11.2043
pakvam	-11.2045
magnA	-11.2046
▁bAr	-11.2048
▁dIyatAm	-11.2049
▁vedi	-11.205
▁santoza	-11.205
▁DErya	-11.2053
▁SabdA	-11.2053
aDipatiH	-11.2054
maru	-11.2056
AvftA	-11.2057
AnaH	-11.2057
uddizw	-11.2057
tur	-11.2059
dAnAt	-11.2059
Sar	-11.206
varREH	-11.206
uddeS	-11.2061
labD	-11.2061
AturaH	-11.2064
▁nadyA	-11.2065
sevitA	-11.2066
mucya	-11.2067
BAg	-11.2067
▁citrARi	-11.2068
▁prayukta	-11.2069
▁jAne	-11.2069
drA	-11.2069
By	-11.207
▁svargaH	-11.2071
▁nandana	-11.2072
▁prastuta	-11.2074
▁durbala	-11.2075
Akza	-11.2075
anftam	-11.2076
▁gahana	-11.2077
▁saMjAta	-11.2077
▁meza	-11.2079
▁gaREH	-11.2079
vajram	-11.208
BAgO	-11.2081
▁sidDAnta	-11.2083
aDara	-11.2085
lAni	-11.2086
▁tAdfSam	-11.2086
▁Bavana	-11.2087
cakruH	-11.2087
▁anekezA	-11.2088
▁AjYAya	-11.2089
prAnte	-11.209
sPowa	-11.209
▁sUtakam	-11.209
kaviH	-11.2091
GAtaH	-11.2092
▁urvaSI	-11.2093
mohana	-11.2094
▁meG	-11.2094
▁Palguna	-11.2096
iq	-11.2097
▁mahAntam	-11.2097
▁puraskAra	-11.2098
paSyati	-11.21
lamba	-11.21
BIzm	-11.2101
sambanDi	-11.2102
▁hIyate	-11.2103
roD	-11.2104
ArI	-11.2105
jalA	-11.2105
pUjya	-11.2105
▁narARAm	-11.2107
sal	-11.2107
udDaret	-11.2107
▁dizwa	-11.2109
▁dinezu	-11.2109
▁DarmA	-11.2109
▁rakzaRaM	-11.211
BayA	-11.211
kAryA	-11.211
mandirasya	-11.2112
tareRa	-11.2114
Yjali	-11.2115
▁enAm	-11.2116
▁praDAnamantrI	-11.2116
▁SuBAH	-11.2116
▁rudrA	-11.2117
▁vAsavadattA	-11.2118
▁patan	-11.2119
▁kArmukam	-11.2121
▁anugrahaH	-11.2122
tamAH	-11.2122
agryam	-11.2123
BAgAH	-11.2123
▁nigfhya	-11.2124
▁sakalA	-11.2124
yutAni	-11.2124
IkzaRam	-11.2125
▁Kadira	-11.2126
upekz	-11.2127
janasya	-11.2128
BUzaREH	-11.2128
mUtram	-11.2129
▁gantA	-11.2129
▁malina	-11.213
▁rogaH	-11.2131
kurute	-11.2131
Apad	-11.2132
nAqI	-11.2132
bimb	-11.2133
▁rudrAH	-11.2134
▁gacCAmi	-11.2136
▁ramye	-11.2136
▁pratijYAm	-11.2136
▁anupa	-11.2136
meDa	-11.2136
▁revA	-11.2136
▁SilAleK	-11.2137
▁Aroha	-11.2137
parIkzA	-11.2138
upAcaret	-11.2139
syAH	-11.2139
▁puratas	-11.2141
▁rADA	-11.2142
▁nIlaH	-11.2144
▁hotA	-11.2144
padArTa	-11.2145
▁mandA	-11.2146
AramBaH	-11.2147
▁kAkutsTa	-11.2147
▁DUmra	-11.2148
▁kzemam	-11.2151
nyAH	-11.2151
▁bARAn	-11.2152
▁lABaH	-11.2153
apriyam	-11.2154
tula	-11.2154
▁naktam	-11.2155
stri	-11.2155
▁dEvatam	-11.2156
mAkzikam	-11.2156
▁acirAt	-11.2159
▁SamI	-11.2162
▁mahIpAla	-11.2162
▁parigaRyat	-11.2162
vftteH	-11.2162
yogAH	-11.2163
ADika	-11.2164
AlayaH	-11.2165
▁Bara	-11.2165
rvA	-11.2167
kilomIwarmite	-11.2168
SIlAH	-11.2169
Kara	-11.2169
Ayuz	-11.217
▁aNguzWa	-11.2172
▁kfzRAm	-11.2172
ADipa	-11.2173
▁briwiS	-11.2174
▁jAyA	-11.2174
▁vEdik	-11.2174
▁Apatanta	-11.2174
parama	-11.2175
sevitam	-11.2176
▁smitam	-11.2176
rAtre	-11.2177
▁Gaw	-11.2177
▁DArayan	-11.218
▁dAn	-11.218
saBAyAH	-11.2181
▁Ayojana	-11.2183
▁divOkasaH	-11.2183
▁nakzatrARi	-11.2183
▁suyoDanaH	-11.2183
kur	-11.2184
secayet	-11.2185
▁tamasaH	-11.2186
▁samUh	-11.2186
▁laBante	-11.2186
putrAn	-11.2187
▁jajYire	-11.2188
▁Danuz	-11.2188
▁Agama	-11.2189
saMcaya	-11.2189
▁nirmala	-11.219
hare	-11.219
ad	-11.2191
▁boDayati	-11.2192
varze	-11.2193
gfhRAti	-11.2193
▁caturTam	-11.2194
▁atyajat	-11.2194
Denu	-11.2195
▁vimucyate	-11.2196
▁kzetrezu	-11.2196
kUla	-11.2197
▁vivikta	-11.2197
kalevaram	-11.2198
pallava	-11.2198
▁pramARena	-11.2199
▁AyAti	-11.2199
sarja	-11.2199
yAmam	-11.2199
▁paWanti	-11.2201
sah	-11.2201
kfz	-11.2203
carAcaram	-11.2204
▁pfTag	-11.2204
vipr	-11.2205
▁avApnuyAt	-11.2208
▁DArtarAzwra	-11.2208
▁prastut	-11.2209
unmatta	-11.221
▁yudD	-11.221
▁mAtula	-11.2211
▁Palgu	-11.2212
mARe	-11.2212
veSmani	-11.2212
BAjana	-11.2215
▁sTit	-11.2215
vasTAyA	-11.2216
sTAm	-11.2216
apekzayA	-11.2217
▁asuraH	-11.2217
▁dyu	-11.2217
saMvatsar	-11.2219
▁rAzwr	-11.2219
akEH	-11.2219
daya	-11.222
▁darBa	-11.222
prasTam	-11.2221
▁vizayARA	-11.2222
valI	-11.2224
sAmagrI	-11.2225
▁yakzaH	-11.2226
rTam	-11.2226
Aroha	-11.2227
▁anilaH	-11.2229
▁yAjYavalkyaH	-11.2229
▁prAcIn	-11.2229
▁karmA	-11.223
bb	-11.2232
ramBa	-11.2232
nidAnam	-11.2233
▁tIvram	-11.2234
▁saMSaya	-11.2235
pUraRa	-11.2235
vak	-11.2236
▁yUTa	-11.2237
sampradAy	-11.2237
▁mahABAgAH	-11.2237
▁lalita	-11.2238
▁pravfttaH	-11.2238
▁rogAn	-11.2239
▁sOBa	-11.2239
▁piSAca	-11.2239
▁vijYAta	-11.224
▁dASArha	-11.224
brahmA	-11.224
Adravat	-11.224
parityAg	-11.2241
▁lakzmyA	-11.2244
▁janezu	-11.2245
rAjYA	-11.2245
Ayi	-11.2246
▁banDuH	-11.2246
tarAm	-11.2247
▁vidyAlaye	-11.2247
rza	-11.2249
pratizWA	-11.2249
▁SarmizWA	-11.2251
▁prakalpayet	-11.2253
▁sikatA	-11.2254
BEravaH	-11.2254
▁gamyatAm	-11.2255
kzoBa	-11.2255
▁Bakzya	-11.2255
coda	-11.2256
▁krI	-11.2257
udDfta	-11.2257
AyuzmAn	-11.2258
viSezeRa	-11.2259
▁viviDA	-11.2259
▁SuBra	-11.2261
▁nASam	-11.2261
gaRqa	-11.2262
sav	-11.2264
▁pravartante	-11.2265
alaMkftam	-11.2267
hitAn	-11.2267
▁kawukA	-11.2267
droh	-11.2269
▁pratyaBAzat	-11.2269
YjI	-11.2273
kandaH	-11.2273
▁Kala	-11.2273
rab	-11.2275
anuvartate	-11.2275
sADAraR	-11.2277
▁sPuwam	-11.2277
▁SuRWI	-11.2277
vIraH	-11.2278
▁kAtyAyana	-11.2278
pAkaH	-11.2279
aBihataH	-11.228
pena	-11.2281
▁utpannA	-11.2282
▁aBizeka	-11.2282
binduH	-11.2282
▁yoge	-11.2282
▁dah	-11.2283
SAlI	-11.2283
ema	-11.2283
aNke	-11.2284
▁GorA	-11.2285
apatyA	-11.2286
▁vAhana	-11.2286
priyam	-11.2287
▁pravAh	-11.2288
vAl	-11.2288
▁Baved	-11.2288
▁acyutaH	-11.2289
SOc	-11.229
kiraRa	-11.229
vAde	-11.2292
▁yav	-11.2292
uzya	-11.2295
▁praBu	-11.2295
avatI	-11.2296
pAR	-11.2296
▁nAmaBiH	-11.2296
▁Cid	-11.2297
▁DArmikaH	-11.2299
▁SvetaH	-11.2299
atIta	-11.23
hatA	-11.2303
raja	-11.2303
vikA	-11.2306
ayuta	-11.2307
tIH	-11.2308
Ekzata	-11.2309
utpAdit	-11.2309
▁droRasya	-11.2311
▁taRqula	-11.2312
zaw	-11.2312
▁smAraka	-11.2313
Uh	-11.2314
pAlAn	-11.2314
aNgada	-11.2315
DAraRa	-11.2316
aBimuKaH	-11.2317
▁sTAnAt	-11.2318
vet	-11.232
▁Onnatya	-11.232
▁vadAmi	-11.2321
▁pustakAni	-11.2321
▁DftarAzwram	-11.2321
BIma	-11.2321
▁harItakI	-11.2321
Scit	-11.2321
▁vapuzA	-11.2321
▁mADyamen	-11.2321
drAv	-11.2321
muneH	-11.2322
▁tasminneva	-11.2322
▁yajamAnaH	-11.2323
▁stuvanti	-11.2323
asmad	-11.2323
▁prArTa	-11.2325
▁BImena	-11.2325
ucita	-11.2326
▁kavitA	-11.2326
▁surARAm	-11.2326
▁cO	-11.2327
▁rAmA	-11.2327
AgamaH	-11.2328
not	-11.2328
anyAH	-11.2329
▁medinIm	-11.233
▁viSrutA	-11.233
pallav	-11.2331
vipAk	-11.2331
ravi	-11.2331
OzaDEH	-11.2332
saNg	-11.2332
mUtrEH	-11.2333
hiNgu	-11.2335
▁amftA	-11.2336
viroDa	-11.2337
▁raktapitta	-11.2337
▁paYcAnAm	-11.2337
▁manyamAnaH	-11.2338
canda	-11.2339
pIqitA	-11.234
▁vadatAm	-11.2342
jAlam	-11.2348
▁cintaya	-11.2349
▁SEva	-11.2352
AtreyaH	-11.2353
yogEH	-11.2353
▁kuSalaH	-11.2353
▁janapada	-11.2354
patrEH	-11.2354
saNgaH	-11.2355
virudDa	-11.2356
▁prATamika	-11.2358
▁caturRAm	-11.2358
klinna	-11.2361
ham	-11.2364
vitta	-11.2364
▁saMviDAna	-11.2364
vigraha	-11.2365
▁vfdDim	-11.2366
sikta	-11.2367
▁prayAt	-11.2367
▁vidyAlaya	-11.2367
▁viSizyat	-11.2373
prayoge	-11.2374
▁grahaRa	-11.2374
samBavA	-11.2375
BAzitam	-11.2376
▁gAnDarva	-11.2381
▁paNkaja	-11.2382
▁durbal	-11.2383
▁irA	-11.2384
vyApAra	-11.2385
vinA	-11.2385
▁mfduH	-11.2385
niryAsa	-11.2385
▁samAje	-11.2385
Urmi	-11.2386
AnAha	-11.2386
▁srotaH	-11.2386
grahaRAt	-11.2388
payati	-11.2389
gupta	-11.2389
upetA	-11.2389
▁kawi	-11.239
▁jAmadagny	-11.239
AramBe	-11.239
▁BImasenena	-11.2391
▁saMSoDanam	-11.2391
yantAm	-11.2392
▁SiKaRqina	-11.2392
▁prezitaH	-11.2393
yAs	-11.2394
▁pratyak	-11.2394
cUrRena	-11.2396
▁sPurat	-11.2397
upanizad	-11.2397
▁vindate	-11.2397
janAnAm	-11.2397
nirataH	-11.2398
▁itihAse	-11.24
avApnoti	-11.24
▁tal	-11.2401
▁sahasraSaH	-11.2401
▁putr	-11.2401
▁lepa	-11.2402
ambare	-11.2402
gAr	-11.2403
dUzita	-11.2403
▁SrImad	-11.2405
▁tattvena	-11.2407
vAhayet	-11.2407
araRye	-11.2409
pekz	-11.2409
▁SOnakaH	-11.241
▁viKyAtam	-11.241
rika	-11.2414
aSanaH	-11.2415
▁maT	-11.2415
vAte	-11.2416
gopa	-11.2417
teByaH	-11.242
▁hitaH	-11.242
▁dozA	-11.2421
AKyasya	-11.2422
▁tantu	-11.2422
viDeya	-11.2422
vicAraH	-11.2422
DAr	-11.2425
grahaRe	-11.2426
yutAH	-11.2426
▁carita	-11.2428
nadDa	-11.2429
▁suK	-11.2429
▁druh	-11.243
SezeRa	-11.243
tapas	-11.2433
pIqitam	-11.2434
MSaH	-11.2435
saMKya	-11.2436
itasya	-11.2437
Dehi	-11.2437
▁vivarDa	-11.2439
aSmarI	-11.2441
▁mftA	-11.2441
gaRasya	-11.2441
▁pratyaham	-11.2441
yukti	-11.2442
ASritam	-11.2442
paricCad	-11.2443
yeran	-11.2443
ANka	-11.2444
▁krOYca	-11.2447
▁dUzay	-11.2448
lokezu	-11.245
virecan	-11.2453
SoDa	-11.2453
Bojya	-11.2454
▁Agam	-11.2455
kzatra	-11.2457
vAdasya	-11.2457
matim	-11.2458
▁vfkodara	-11.2459
marty	-11.2459
▁yuzmAkam	-11.246
makarot	-11.246
▁praSaMsanti	-11.246
jahruH	-11.246
kroDaH	-11.246
▁saradAra	-11.2461
opanizad	-11.2461
▁grIzma	-11.2461
▁gujarAtarAjye	-11.2461
▁yAtuDAn	-11.2461
▁amba	-11.2462
prayogeRa	-11.2464
▁vAstavika	-11.2465
ruk	-11.2465
jIvinaH	-11.2466
▁BaradvAja	-11.2467
▁Ajya	-11.2467
▁anuBAva	-11.2468
▁deveSa	-11.2468
▁svarUpaM	-11.2468
SlAG	-11.2468
▁vimuktaH	-11.2469
vastrA	-11.2469
aNguzWa	-11.2471
srotaH	-11.2471
▁mArgeRa	-11.2473
kzar	-11.2473
Par	-11.2475
▁narasiMha	-11.2475
SvaH	-11.2476
cet	-11.2478
▁dvaMdva	-11.248
▁yAdava	-11.2481
sidDO	-11.2482
▁triguRam	-11.2482
sAhasram	-11.2483
gi	-11.2483
akA	-11.2484
nidr	-11.2485
▁kalAm	-11.2486
manyuH	-11.2486
utpadyate	-11.2486
▁sadASiva	-11.2487
▁udA	-11.2487
datt	-11.2488
▁spazwam	-11.2489
▁nanAda	-11.2489
kftena	-11.249
▁praRItam	-11.249
vivAha	-11.2492
▁karizye	-11.2492
stU	-11.2494
▁prakIrtitAH	-11.2494
keSI	-11.2495
▁varzeByaH	-11.2495
▁caturviDam	-11.2496
▁mfdA	-11.2496
▁Sulka	-11.2498
daMSa	-11.2498
itTam	-11.25
▁vIryeRa	-11.25
varRe	-11.2503
vizay	-11.2505
prakAra	-11.2506
▁paTya	-11.2507
▁mumbaInagar	-11.2508
▁anantaH	-11.2509
tizWet	-11.2512
Sabd	-11.2513
kIya	-11.2514
kftO	-11.2517
kan	-11.2517
▁avakASa	-11.2518
▁BavatyAH	-11.2519
▁baka	-11.252
▁BAskar	-11.252
▁bahUnA	-11.2521
pravara	-11.2522
▁nyAy	-11.2522
rj	-11.2522
▁SAsak	-11.2523
▁sugrIva	-11.2524
grasta	-11.2524
vAraRa	-11.2526
pOtra	-11.253
▁mlecCa	-11.253
▁naSyanti	-11.253
dudrAva	-11.2531
▁nAwake	-11.2533
▁citA	-11.2533
alaM	-11.2534
Andolanasya	-11.2534
▁lalAwe	-11.2535
▁duryoDanasya	-11.2536
▁janaka	-11.2537
▁KAdet	-11.2537
▁kalyARi	-11.2537
▁SOca	-11.2538
▁aNgAra	-11.2538
▁viBaj	-11.2539
▁SoBate	-11.254
vinirmuktaH	-11.254
SikzaR	-11.254
ganDaka	-11.2541
▁tapoDana	-11.2543
saMniDO	-11.2544
asakft	-11.2544
▁nityadA	-11.2545
azwAdaSa	-11.2545
gacCet	-11.2545
▁SudDiH	-11.2545
▁kumud	-11.2546
▁tiTi	-11.2546
▁brAhmam	-11.2546
vAsare	-11.2547
gOrava	-11.2548
Bavanti	-11.2549
▁sparDA	-11.2549
▁paca	-11.255
▁SfNga	-11.2551
▁dIptam	-11.2551
▁krIqAyA	-11.2552
bahulA	-11.2553
▁syAm	-11.2554
▁prAkft	-11.2554
prayogaSAlA	-11.2555
prayatnena	-11.2558
ganDaH	-11.2559
▁DAva	-11.256
AKu	-11.256
▁prAREH	-11.2561
sTAnezu	-11.2562
▁varuR	-11.2562
upadrava	-11.2562
▁badDA	-11.2567
▁draviRa	-11.2567
svarRa	-11.2567
mAnEH	-11.2568
prakArA	-11.2568
▁duHSAsanaH	-11.2568
▁nirgataH	-11.2569
sAmarTya	-11.257
▁jalapAta	-11.257
vidvAn	-11.2572
manIz	-11.2572
▁sarpizA	-11.2573
▁nAmakaraRa	-11.2576
▁sindUra	-11.2576
kIr	-11.2578
dIkzita	-11.2579
SiK	-11.2579
▁SfRuyAt	-11.258
▁sArTa	-11.2586
▁Anaya	-11.2587
▁aBaya	-11.2587
▁sAr	-11.2588
▁aBisaM	-11.2589
▁BagnA	-11.259
saMkoc	-11.259
▁satye	-11.259
▁mahArAzwra	-11.2592
lava	-11.2592
lUru	-11.2593
vizayaH	-11.2593
▁pARim	-11.2594
▁vESvAnara	-11.2594
▁BAratIyAnA	-11.2595
▁SApAt	-11.2595
svanam	-11.2596
yazwi	-11.2599
▁prahfzwa	-11.2599
▁gajaH	-11.26
▁saMyogaH	-11.2601
▁kasmiMScid	-11.2601
▁nirdiSyate	-11.2601
▁viprARAm	-11.2602
Dfta	-11.2602
▁mAhiz	-11.2602
▁tatratya	-11.2602
▁AnDrapradeSa	-11.2602
▁zazWI	-11.2603
▁dayitA	-11.2603
▁cIna	-11.2604
uzitaH	-11.2606
rUpEH	-11.2606
▁varuRasya	-11.2606
grAmaM	-11.2608
▁nAgarik	-11.2609
rakzaRAya	-11.261
DAva	-11.261
▁nimeza	-11.2612
▁prARe	-11.2613
▁samAgamya	-11.2614
▁sidDArTa	-11.2616
padasya	-11.2616
uccEs	-11.2617
▁sAhas	-11.2617
kfmi	-11.2618
▁nASayet	-11.2619
▁rukmiRI	-11.262
▁paYcatantra	-11.262
▁gujarAtarAjya	-11.2621
▁vidaDyAt	-11.2622
▁snehAt	-11.2622
yar	-11.2624
▁dam	-11.2625
▁ugr	-11.2625
nihita	-11.2625
SatAbdyAM	-11.2628
▁BramaH	-11.2629
BAjanam	-11.2629
inyA	-11.2629
▁majjA	-11.263
SoBitA	-11.2632
sTalI	-11.2632
AsvAda	-11.2634
▁zazWa	-11.2634
▁utpannaH	-11.2634
azwakam	-11.2635
ISAna	-11.2638
▁pAcyam	-11.2641
pApEH	-11.2642
Sakft	-11.2642
▁avApya	-11.2642
▁patita	-11.2643
koSaH	-11.2643
▁petuH	-11.2645
▁kava	-11.2645
▁ruj	-11.2646
▁koS	-11.2647
kalmaza	-11.2647
▁apari	-11.2649
▁mahAvIraH	-11.2649
▁dAhaH	-11.265
aByas	-11.2651
▁SilAjatu	-11.2652
grAhya	-11.2652
Akarza	-11.2653
▁mAtaraH	-11.2655
vfttim	-11.2655
maDyAt	-11.2656
▁sugrIvam	-11.2657
▁paYcamam	-11.2658
nantaraM	-11.2659
▁anuttarA	-11.266
▁aDyAp	-11.2661
▁saNgIt	-11.2662
▁nikawa	-11.2663
saMjYam	-11.2663
▁SuBEH	-11.2664
▁upayujya	-11.2665
▁stanya	-11.2667
▁anukUla	-11.2667
▁pIna	-11.2668
anIyam	-11.2668
▁arT	-11.2668
vah	-11.267
meDA	-11.267
▁nivftti	-11.2671
udBavA	-11.2671
pfcCasi	-11.2671
▁vAsAMsi	-11.2673
karRikA	-11.2673
yAmAsuH	-11.2673
▁jaguH	-11.2674
▁kzatriyasya	-11.2674
rc	-11.2675
Cand	-11.2677
▁ityanayA	-11.2677
▁kopAt	-11.2678
sarge	-11.2678
svarUpam	-11.2678
svapna	-11.2681
arocaka	-11.2682
parisar	-11.2683
▁saMyojya	-11.2683
▁nfSaMsa	-11.2686
▁saNkalpa	-11.2687
viSvAsa	-11.2687
kramya	-11.2688
▁dehI	-11.269
apsarasaH	-11.269
Rv	-11.269
▁trAsa	-11.2692
ahnaH	-11.2693
utsavaH	-11.2693
DanaH	-11.2693
niroDa	-11.2694
▁manyuH	-11.2694
▁pratipAditA	-11.2695
pratipatti	-11.2696
▁tAlakam	-11.2697
▁suBaga	-11.2698
padyante	-11.2698
▁manmaTa	-11.2698
vijay	-11.2699
cetana	-11.27
SoBanam	-11.27
NgaH	-11.2701
▁triviDA	-11.2703
gocaram	-11.2704
pArada	-11.2704
▁yozitAm	-11.2704
▁mUrCA	-11.2705
liKet	-11.2706
Bukta	-11.2709
▁relasTAnakam	-11.271
▁mfte	-11.2713
▁kaRA	-11.2713
▁bAlakasya	-11.2716
▁cAr	-11.2717
▁anuBav	-11.2717
▁yogA	-11.2718
hfdayA	-11.2719
tavyAH	-11.272
▁pramuK	-11.272
▁gOravam	-11.272
hartum	-11.2721
▁Sastram	-11.2721
▁prasTita	-11.2721
mfjya	-11.2722
guptA	-11.2724
varzIyaH	-11.2727
mataM	-11.2727
arTEH	-11.2729
▁abja	-11.2729
▁aMSaH	-11.273
AnandaH	-11.273
▁arizwa	-11.2734
▁sAvitr	-11.2734
▁mahodayasya	-11.2735
▁prakawa	-11.2735
▁vAnaraH	-11.2735
▁jaGnuH	-11.2736
nipAta	-11.2737
▁AtmanAm	-11.2737
▁Slokena	-11.2737
▁parivartita	-11.2738
▁snAtaH	-11.2739
gErika	-11.2739
▁devena	-11.274
▁jaGan	-11.274
devam	-11.2742
▁DftarAzwr	-11.2742
vartita	-11.2743
aklizwa	-11.2745
▁Ganam	-11.2745
Bakzya	-11.2745
atikramya	-11.2745
aNkuSa	-11.2746
▁lakzaRAni	-11.2746
manuzya	-11.2747
Garz	-11.2747
yOvana	-11.2747
▁purAtan	-11.2748
▁sarvAm	-11.2749
mAnO	-11.2749
▁praviSanti	-11.275
▁nipetuH	-11.275
parvaBiH	-11.2751
BAvita	-11.2751
▁saptama	-11.2751
▁prayayuH	-11.2752
kora	-11.2753
bAD	-11.2753
etEH	-11.2753
pradAnena	-11.2755
▁pfcC	-11.2755
▁kratuH	-11.2756
▁viBIzaRa	-11.2758
keli	-11.2758
us	-11.2758
gaRe	-11.2759
BAsa	-11.2759
SarIre	-11.276
▁SaNkar	-11.276
▁hfdyam	-11.2761
▁janavarImAs	-11.2761
▁maNgalam	-11.2761
kIrtiH	-11.2761
grIv	-11.2762
▁banDaH	-11.2762
SroRi	-11.2764
smE	-11.2764
▁miSr	-11.2764
▁peyam	-11.2766
▁dviviDA	-11.2766
▁sADo	-11.2767
▁kulasya	-11.2768
yaSca	-11.2768
AvAm	-11.2769
jvAla	-11.2769
▁alaNkfta	-11.2769
▁praKyAt	-11.2769
▁kftI	-11.277
acintayat	-11.277
jYAni	-11.277
▁svAgatam	-11.277
▁Opa	-11.2773
▁BAskaraH	-11.2773
inAM	-11.2774
ratam	-11.2775
anyasya	-11.2775
▁dravyARi	-11.2776
▁vivakz	-11.2777
▁oqiSArAjy	-11.2778
▁pratizWitA	-11.278
devyA	-11.278
nAqu	-11.2781
▁anava	-11.2783
Dra	-11.2788
tari	-11.2788
▁maRqa	-11.2788
agrya	-11.2788
viKyAt	-11.2788
▁SAsanAt	-11.2789
▁yaSas	-11.2789
▁Sftam	-11.2789
▁puro	-11.2789
▁SaMsa	-11.279
▁pAW	-11.279
dyuti	-11.2791
▁saMmardya	-11.2791
▁guRAnAm	-11.2792
AKyena	-11.2794
parihAr	-11.2794
▁rAm	-11.2794
nirUpaRam	-11.2795
▁paw	-11.2797
▁vAstu	-11.2797
bale	-11.2798
▁pAnam	-11.2799
▁hftA	-11.28
yAnasya	-11.28
BujA	-11.2801
▁avekzya	-11.2801
▁paramARu	-11.2802
▁AvaSyaka	-11.2805
SOca	-11.2806
▁yuyuDAna	-11.2806
sampark	-11.2806
▁kANgres	-11.2807
▁vyApya	-11.2809
anubanD	-11.2815
▁praRay	-11.2815
dri	-11.2815
tattvaM	-11.2816
PAl	-11.2816
▁viviSuH	-11.2817
▁SatravaH	-11.2817
paro	-11.2818
▁raTinaH	-11.2818
▁SakreRa	-11.282
▁avyayaH	-11.282
namaH	-11.2821
▁sADUnAm	-11.2821
▁parAyaRam	-11.2821
rASO	-11.2822
▁dvayam	-11.2823
▁pAdA	-11.2823
▁samAsena	-11.2823
▁etya	-11.2824
KAna	-11.2824
Bavena	-11.2824
utTitaH	-11.2826
▁anujYAtaH	-11.2827
▁jijYAs	-11.2828
▁AKyAtam	-11.2828
prameh	-11.2829
▁icCet	-11.283
ADipaty	-11.283
▁vinIta	-11.283
Adft	-11.2831
▁SizyA	-11.2832
▁nirmARe	-11.2832
▁tamavarza	-11.2832
zo	-11.2833
▁vEzRavam	-11.2833
▁sUtaputra	-11.2835
zad	-11.2835
gir	-11.2835
▁lAlA	-11.2836
▁SabdAH	-11.2838
▁varDamAna	-11.2839
prApta	-11.2841
jvAlA	-11.2842
▁jalabanD	-11.2843
raYjanam	-11.2843
▁sAnu	-11.2844
vargasya	-11.2844
nipAt	-11.2845
▁SiKara	-11.2845
▁kArAgAra	-11.2846
▁SIrza	-11.2846
zIt	-11.2847
garB	-11.2847
▁sUra	-11.2847
▁mahABAratasya	-11.2848
eTAH	-11.2848
▁samudrasya	-11.285
sanDAna	-11.285
▁adAt	-11.2851
vedI	-11.2852
leSa	-11.2854
▁vAraRa	-11.2855
▁sPowa	-11.2855
ESvaryam	-11.2856
▁garuqaH	-11.2856
▁pratyakz	-11.2857
agreRa	-11.2858
kOSal	-11.2858
▁dUtaH	-11.2858
▁paramAtma	-11.286
▁japan	-11.286
patinA	-11.286
prAjYaH	-11.2861
hfday	-11.2861
▁sidDAnt	-11.2861
▁bAlya	-11.2861
vyAGrAH	-11.2861
varmaRaH	-11.2863
kanaka	-11.2864
▁nigad	-11.2865
▁kiMvA	-11.2867
▁varzAt	-11.2867
▁vivek	-11.2868
lokasaBAkzetr	-11.2868
ullA	-11.287
fzaBam	-11.287
▁Kaqg	-11.287
▁maheSvar	-11.2875
▁mohana	-11.2876
▁saNGa	-11.2877
prItaH	-11.2878
Bave	-11.2879
saMyuktaH	-11.2879
▁pOr	-11.2879
▁rAkzasEH	-11.288
▁Svasan	-11.288
▁brAhmaRe	-11.288
▁sidDAntaH	-11.2881
vallaBA	-11.2882
▁sanni	-11.2883
▁tIrT	-11.2884
▁kzayaH	-11.2885
hInAH	-11.2886
pradAna	-11.2886
Anta	-11.2886
▁saMskft	-11.2888
aSana	-11.2888
puzp	-11.2888
kura	-11.2888
varcasA	-11.289
▁marAWI	-11.289
▁gurave	-11.289
▁gajapuwe	-11.289
▁rAjasUya	-11.289
▁samayAntar	-11.289
nf	-11.2891
lakzaR	-11.2892
sakta	-11.2892
▁nivedayet	-11.2893
▁spfhA	-11.2893
▁reme	-11.2894
▁hastena	-11.2895
▁rahasyam	-11.2896
▁muK	-11.2897
sADan	-11.2899
jYapt	-11.2899
▁pibanti	-11.29
aprati	-11.29
▁vizayam	-11.2903
▁prakASaH	-11.2905
▁cintan	-11.2906
ndriya	-11.2906
▁izwA	-11.2907
kramA	-11.2909
SAstrI	-11.2909
▁parIkzya	-11.291
▁aByayAt	-11.2912
▁hetunA	-11.2913
▁samADAna	-11.2914
▁dvAdaSe	-11.2915
▁tAr	-11.2915
▁bahuviDA	-11.2916
▁drAv	-11.2916
▁Binnam	-11.2919
▁ramya	-11.2919
▁aSvatTa	-11.2919
ASrita	-11.2919
▁vaman	-11.2922
SU	-11.2923
pakva	-11.2925
▁anir	-11.2925
▁Bajan	-11.2926
▁durlaBA	-11.2926
▁piba	-11.2928
parivftaH	-11.2929
vAg	-11.2931
padDati	-11.2931
Bakta	-11.2932
asmAt	-11.2934
arRa	-11.2935
▁amar	-11.2935
▁vedasya	-11.2935
udak	-11.2936
▁gomaya	-11.2936
▁vyApAra	-11.2936
▁mahABAgaH	-11.2937
vikrama	-11.2937
▁yantre	-11.2938
▁mfgaH	-11.2938
▁sOBAgya	-11.294
anulepan	-11.2941
▁paritas	-11.2941
saMvid	-11.2942
▁gopAH	-11.2942
▁samAgat	-11.2942
dvaMdv	-11.2942
ekAdaSa	-11.2942
▁vartamAnA	-11.2943
SEl	-11.2944
▁vikram	-11.2948
mUlaka	-11.2949
ekAm	-11.295
▁Ayas	-11.295
▁upalabD	-11.2951
▁stabDa	-11.2951
▁itare	-11.2956
senAyAH	-11.2957
▁kumBakarRa	-11.2957
▁virAw	-11.2959
SatA	-11.296
▁kfz	-11.2961
Agamya	-11.2963
▁dEtyaH	-11.2963
▁marAWA	-11.2964
yazwI	-11.2964
upakAra	-11.2965
▁kEvalya	-11.2965
▁jAnakI	-11.2965
▁dozARAm	-11.2965
aDvAnam	-11.2967
▁dvezwi	-11.2967
ino	-11.2967
▁hariRA	-11.2968
nyasta	-11.2969
ASrayA	-11.2969
▁dviviDaH	-11.2969
▁puna	-11.2971
▁prasava	-11.2972
Suz	-11.2972
▁SaNKam	-11.2973
▁tArkzya	-11.2974
▁piRqam	-11.2975
aj	-11.2975
▁SrIvatsa	-11.2975
saBAyA	-11.2975
lavaR	-11.2976
pady	-11.2976
▁pramaT	-11.2977
vIkzaR	-11.2978
▁puRqarIka	-11.2978
aDamaH	-11.2978
▁vESravaRa	-11.2979
▁EcCat	-11.298
▁viBaktam	-11.2981
prapaYca	-11.2981
mevA	-11.2981
apekz	-11.2982
praSna	-11.2983
vacA	-11.2983
▁nizeDa	-11.2983
▁droR	-11.2984
▁kalpaH	-11.2987
amitra	-11.2988
▁apAya	-11.2988
▁narEH	-11.299
opadeSa	-11.299
durlaBam	-11.299
kulI	-11.2991
gad	-11.2991
▁upAste	-11.2992
▁parAjitaH	-11.2993
Yjal	-11.2993
Badr	-11.2994
roge	-11.2994
▁DyA	-11.2994
▁drupadaH	-11.2995
▁SASvatI	-11.2998
saMjYak	-11.2998
udake	-11.2999
antaka	-11.2999
▁vyapa	-11.3
sAya	-11.3001
▁kratu	-11.3002
▁anekA	-11.3003
▁gamizyati	-11.3004
▁Bed	-11.3004
▁SoBA	-11.3005
cikIrz	-11.3007
utsAh	-11.3007
uSan	-11.3007
dvEta	-11.3007
▁putre	-11.301
vyAGraH	-11.3011
▁Bag	-11.3011
rTo	-11.3012
▁parAjaya	-11.3013
▁plava	-11.3015
▁han	-11.3017
vijYAnasya	-11.3017
▁Pale	-11.3017
AgAra	-11.3018
▁SuklA	-11.3018
▁Bagavad	-11.3019
▁sfj	-11.3019
gf	-11.3019
▁nipuR	-11.302
gaRanA	-11.3022
SItam	-11.3024
▁paryavAraya	-11.3025
syAn	-11.3025
▁senApatiH	-11.3026
oG	-11.3026
▁nfpateH	-11.3027
▁mandam	-11.3027
▁paryApta	-11.3027
▁aDikAraH	-11.3027
▁kukzi	-11.3029
unnat	-11.3029
▁sanAtan	-11.303
▁dfQA	-11.303
taqAg	-11.303
▁jAraRA	-11.3031
▁kawa	-11.3031
▁moGa	-11.3031
aNGri	-11.3031
▁parikIrtita	-11.3031
campU	-11.3032
karo	-11.3032
prokta	-11.3032
SAlAyA	-11.3036
yojya	-11.3036
sUnuH	-11.3036
puranagar	-11.3037
kAlI	-11.304
▁upasaM	-11.3041
yad	-11.3041
▁saMskfte	-11.3042
DAtum	-11.3042
raktam	-11.3046
▁nira	-11.3046
sAdanam	-11.3047
▁matAH	-11.3048
▁samBavanti	-11.3049
▁balinaH	-11.3049
dAyinI	-11.305
kftvas	-11.3052
▁raT	-11.3052
prayogaH	-11.3055
tizWa	-11.3057
▁uj	-11.3058
▁pracakzat	-11.3059
▁pradattaH	-11.3059
▁suparRa	-11.306
rakzitam	-11.306
▁mAnuza	-11.306
jYAnI	-11.3063
▁svakam	-11.3064
▁droRena	-11.3064
udDftya	-11.3064
AMSa	-11.3065
tAlaka	-11.3066
icCanti	-11.3066
utsfzwa	-11.3067
▁mand	-11.3067
jyotiH	-11.3068
spazwa	-11.307
manA	-11.3073
▁nyagroDa	-11.3073
▁divas	-11.3074
sraj	-11.3077
gatAni	-11.3079
Rqu	-11.3079
TaH	-11.3079
▁pARq	-11.308
rata	-11.308
▁avatAr	-11.3085
▁krAntikAriR	-11.3085
▁taRqul	-11.3086
amBoja	-11.3087
dvayena	-11.3087
taru	-11.3087
▁maDyamaH	-11.309
▁Braman	-11.309
▁avA	-11.3092
▁Bikz	-11.3093
▁vfttAnta	-11.3093
▁kusum	-11.3094
▁apAna	-11.3094
rAgam	-11.3096
▁premRA	-11.3097
Al	-11.31
sevana	-11.3101
svanaH	-11.3103
alaMkAra	-11.3104
▁saptAh	-11.3105
vfdDaye	-11.3106
SvA	-11.3106
anvaya	-11.3107
▁jYeyAH	-11.3107
aByantara	-11.3108
avaSyam	-11.311
smara	-11.311
▁AdyaH	-11.3111
▁saMvarta	-11.3112
▁kezAYcana	-11.3112
asTIni	-11.3112
▁prasenajit	-11.3112
▁vakzyamARa	-11.3112
AdiSet	-11.3113
▁prajayA	-11.3113
praSaMs	-11.3114
▁pfzwA	-11.3114
vaSaH	-11.3115
puwitam	-11.3115
▁dvijAtayaH	-11.3116
▁ganDarvaH	-11.3116
▁vAsudeve	-11.3116
▁sArva	-11.3117
▁BerI	-11.3117
▁vinyaset	-11.3118
▁dant	-11.3118
BAvA	-11.3119
▁BramaRa	-11.312
AvaSyaka	-11.3121
droRa	-11.3121
▁aByaBAzat	-11.3121
▁vAva	-11.3122
▁AdeSa	-11.3122
▁sItayA	-11.3122
▁sattama	-11.3122
pAk	-11.3122
▁dar	-11.3123
udAra	-11.3123
▁nirmAya	-11.3123
▁taTAgata	-11.3125
gocaraH	-11.3126
▁praBoH	-11.3127
saNGawan	-11.3127
aByud	-11.3128
▁vfka	-11.3129
▁citraka	-11.3129
▁jAr	-11.313
ekEkam	-11.313
▁naya	-11.3131
▁vijYeyam	-11.3131
▁kl	-11.3131
▁prasfta	-11.3132
▁suBUtiH	-11.3132
▁samIra	-11.3133
▁carc	-11.3133
▁ambikA	-11.3134
▁pAnIyam	-11.3135
▁mImAMsA	-11.3136
▁pApAni	-11.3136
▁vinASaH	-11.3137
upasTA	-11.3138
eSvarasya	-11.3142
▁gola	-11.3143
lanaM	-11.3143
kOtuk	-11.3144
▁gatO	-11.3144
striyaH	-11.3149
samApt	-11.3149
▁aKilam	-11.3151
▁kari	-11.3151
samudAy	-11.3153
▁prayataH	-11.3156
BAzAyAm	-11.3158
akzayam	-11.3158
reRu	-11.3159
puzwi	-11.3159
jIvanaM	-11.316
hAre	-11.316
kre	-11.316
▁Sayane	-11.3161
▁hAra	-11.3161
▁maya	-11.3162
ucyatAm	-11.3165
▁elA	-11.3165
upaBog	-11.3167
vyakt	-11.3167
svarUpaM	-11.3168
▁SiSuH	-11.3168
▁kavir	-11.3171
dvAreRa	-11.3171
sevak	-11.3171
dravyEH	-11.3171
▁kyA	-11.3172
viSudDa	-11.3173
▁muninA	-11.3174
▁vijita	-11.3174
▁samADiH	-11.3175
zwo	-11.3176
▁tApasa	-11.3177
nizevita	-11.3177
yyaH	-11.3178
▁SaNkaram	-11.3178
▁daDAti	-11.318
▁nazwam	-11.3181
▁duHKitA	-11.3183
antra	-11.3184
vyApAr	-11.3185
▁anantam	-11.3185
kARq	-11.3185
▁kravyAd	-11.3187
▁Danada	-11.3188
▁BAratagaRarAjy	-11.3188
▁Aruroha	-11.3188
nizev	-11.3189
▁vAyavya	-11.319
▁sTUlA	-11.319
▁niScayam	-11.3191
vijaye	-11.3191
▁SuSrUzA	-11.3192
DarmAn	-11.3193
▁nArikela	-11.3195
▁samprApte	-11.3197
▁maDyamam	-11.3198
▁viSvavidyAlaye	-11.3199
▁milati	-11.32
kzatriyARAm	-11.3201
Slizwa	-11.3203
malla	-11.3203
vidA	-11.3203
stuti	-11.3204
▁yodDum	-11.3205
▁sPawika	-11.3205
▁izw	-11.3207
Izu	-11.3209
▁sandehaH	-11.321
▁we	-11.321
▁viBA	-11.321
utkaw	-11.3211
▁kapiH	-11.3212
▁Sive	-11.3213
SivaH	-11.3213
mita	-11.3214
▁cin	-11.3214
▁svacCa	-11.3215
janana	-11.3216
nArI	-11.3219
sUtrARi	-11.3222
▁vfzwi	-11.3223
▁AdyAH	-11.3226
vada	-11.3227
▁id	-11.3228
utTam	-11.3228
▁AgacCa	-11.3228
lq	-11.3228
kzyAmi	-11.3229
Dva	-11.3229
▁SEneya	-11.323
To	-11.3231
SyAma	-11.3233
▁parisara	-11.3234
sfzwi	-11.3234
▁gfhasya	-11.3235
▁lohapuruza	-11.3235
▁jyezWam	-11.3237
tray	-11.3238
▁prabala	-11.3238
▁mall	-11.3238
▁vESyA	-11.3239
▁tvaritaH	-11.3239
sampannAH	-11.3239
varja	-11.3244
▁rakzan	-11.3245
id	-11.3245
mahAnagare	-11.3246
GAw	-11.3247
arD	-11.3248
▁cAra	-11.3249
▁karmayog	-11.3249
duHKam	-11.3251
Ardraka	-11.3253
▁java	-11.3253
▁ev	-11.3254
nAsA	-11.3257
▁lava	-11.3257
mahotsava	-11.3258
▁pravfttA	-11.3259
▁kfSA	-11.326
parvate	-11.3261
jaNgamam	-11.3262
▁patat	-11.3262
▁sOvIra	-11.3263
▁nipapAta	-11.3263
▁anekEH	-11.3264
prAtiSAKy	-11.3264
▁katipaya	-11.3264
laM	-11.3264
▁vikAraH	-11.3264
▁pUjayAmAsa	-11.3264
▁srak	-11.3265
▁paricaya	-11.3265
Acamya	-11.3266
anIkAni	-11.3266
▁paruzam	-11.3267
▁stan	-11.3269
▁Ballena	-11.3272
▁vizaRRa	-11.3272
antO	-11.3272
▁karaRam	-11.3272
odaya	-11.3273
AkzI	-11.3274
dfzwa	-11.3274
wik	-11.3275
▁sAmaveda	-11.3277
yarTaM	-11.3277
▁mati	-11.3279
▁patrikA	-11.3279
ketu	-11.328
DAtrI	-11.328
jayaH	-11.3281
▁caturviDa	-11.3281
kleda	-11.3282
▁daDat	-11.3284
SizyA	-11.3284
oz	-11.3284
aBimuKam	-11.3284
▁pAWA	-11.3284
Bakt	-11.3284
▁puruzottamaH	-11.3286
▁viSvas	-11.3286
▁SezAH	-11.3286
hasita	-11.3287
▁puruzeRa	-11.3287
klama	-11.3288
Bftya	-11.3289
keByaH	-11.3289
▁jaWara	-11.3289
Aturam	-11.329
dyota	-11.3291
liptA	-11.3293
▁Sivena	-11.3296
yogyA	-11.3296
▁darSaya	-11.3297
sTena	-11.3297
▁Gft	-11.3297
DvaMs	-11.3298
▁sTApita	-11.3298
vastUni	-11.3299
relasTAnak	-11.3299
mAz	-11.33
▁nyUn	-11.33
▁kardama	-11.3301
▁Arogya	-11.3302
apekza	-11.3302
▁nAda	-11.3302
DAraRe	-11.3304
▁puruzEH	-11.3307
yoginaH	-11.3307
rji	-11.3308
dinAni	-11.3308
ban	-11.3308
atAqayat	-11.3308
▁prasAdaH	-11.3309
▁pfTuH	-11.331
▁loBAt	-11.3311
nivizwa	-11.3311
▁yasyA	-11.3314
DArAH	-11.3316
Datte	-11.3316
krAmati	-11.3319
▁anantA	-11.332
▁mAnasa	-11.3321
zaq	-11.3323
gaqa	-11.3324
▁miTunam	-11.3325
aNkur	-11.3325
▁AyuzaH	-11.3326
▁kekay	-11.333
▁pawwa	-11.3332
▁vacasA	-11.3332
▁kalpita	-11.3332
▁havizA	-11.3333
▁deSaBakt	-11.3333
▁viSizwaH	-11.3333
▁SatAvarI	-11.3334
▁ftvij	-11.3335
kIla	-11.3336
▁rAw	-11.3337
asyAm	-11.3339
vayaH	-11.3339
tyakta	-11.3339
vijYAne	-11.334
▁vfRIzva	-11.334
▁nepAladeSasya	-11.334
kAyam	-11.3341
▁ramA	-11.3342
▁kalAH	-11.3343
▁viBAga	-11.3343
rakzaRe	-11.3344
▁vanezu	-11.3344
zAM	-11.3345
▁pravara	-11.3345
syAM	-11.3346
▁SakyAH	-11.3348
▁kaliH	-11.3348
BAvo	-11.3349
pizwa	-11.335
▁prAyaSas	-11.3351
▁uccEH	-11.3352
▁putri	-11.3353
▁parigfhya	-11.3353
▁tvara	-11.3354
▁bahuviDa	-11.3354
▁uttaraBAge	-11.3356
Akfzwa	-11.336
mudga	-11.3361
▁cApam	-11.3361
janAn	-11.3363
kuSala	-11.3366
▁dadat	-11.3366
▁kalpe	-11.3367
peya	-11.3367
▁vicakzaR	-11.3369
▁Sizw	-11.337
▁laya	-11.337
karzaRa	-11.3372
dDA	-11.3373
▁samAnam	-11.3373
▁BUyAt	-11.3375
Bam	-11.3375
▁niboData	-11.3375
BUtaM	-11.3376
pavana	-11.3376
▁pralamba	-11.3376
rujam	-11.3377
bahis	-11.3378
Brazwa	-11.3378
▁nirdizwam	-11.3378
▁mUQAH	-11.3378
ucCrit	-11.3379
prAya	-11.338
IBiH	-11.3381
tarEH	-11.3381
kaveH	-11.3382
nakzatrA	-11.3383
▁navame	-11.3384
▁pfzwa	-11.3384
▁Sataka	-11.3385
kru	-11.3385
AlApa	-11.3385
tak	-11.3388
▁prot	-11.3388
tamas	-11.3389
AvasTAyA	-11.339
▁sadasyaH	-11.339
▁ADunik	-11.339
praSastiH	-11.3392
nyAsa	-11.3392
Ikaroti	-11.3392
▁mUzAm	-11.3393
vicAr	-11.3393
Sira	-11.3395
vapuz	-11.3395
▁qe	-11.3397
rAzwriyarAjamArg	-11.34
prasAdena	-11.34
yizye	-11.34
payat	-11.3403
upamAn	-11.3403
upADi	-11.3405
SUdr	-11.3405
upala	-11.3405
▁manTa	-11.3407
saMvft	-11.3408
▁hare	-11.3409
▁bAlikA	-11.3411
▁uts	-11.3411
SuSrUz	-11.3414
pratiBA	-11.3415
uraH	-11.3415
▁yojayitvA	-11.3416
▁suyoDana	-11.3416
▁rujA	-11.3417
▁rucyam	-11.3417
mity	-11.3417
▁niScayena	-11.3417
▁bah	-11.3417
▁hum	-11.342
pipAsA	-11.342
▁AhArapadArT	-11.3421
svaram	-11.3423
▁parjanyaH	-11.3424
▁pibati	-11.3424
▁BItA	-11.3424
▁utpattiH	-11.3424
▁jina	-11.3425
raRena	-11.3425
▁mAtuluNga	-11.3425
▁vacanAni	-11.3426
upavAsa	-11.3427
▁pOrARika	-11.3427
▁anivArya	-11.3428
tAdfS	-11.3429
▁kaTitA	-11.3429
▁tyajati	-11.343
▁kAvyasya	-11.343
▁nyU	-11.343
Ahftya	-11.3431
▁Bujaga	-11.3433
▁tIkzRA	-11.3433
▁rAkzasAnAm	-11.3433
▁mumbaI	-11.3434
parimita	-11.3435
▁sUtasya	-11.3437
▁BavA	-11.3438
palASa	-11.3438
sUri	-11.3439
grAsa	-11.3439
skanDaH	-11.3443
▁pItaH	-11.3444
dyute	-11.3444
pattraH	-11.3444
prakaraRe	-11.3444
maryAd	-11.3444
kaluz	-11.3445
▁yOvana	-11.3446
bruv	-11.3446
avApya	-11.3446
▁vinatA	-11.3447
▁kzIr	-11.3448
veti	-11.3449
▁pratIkza	-11.3449
GozaH	-11.345
▁Dyeya	-11.345
raTEH	-11.3451
▁viroDaH	-11.3451
▁Acarita	-11.3451
▁vfdDAH	-11.3452
▁SUdrAH	-11.3452
▁alaM	-11.3454
▁citre	-11.3454
yogezu	-11.3456
▁taru	-11.3457
ganDarvAH	-11.3457
arcana	-11.3458
▁rAjakumAr	-11.346
▁prAjApaty	-11.3461
▁gARqIva	-11.3464
▁anekAn	-11.3465
kAzWa	-11.3466
BrU	-11.3466
hastena	-11.3467
jIvanasya	-11.3468
▁ASrayaH	-11.347
mardayet	-11.3471
▁giraH	-11.3471
▁bruvAR	-11.3472
pradeS	-11.3472
prasTa	-11.3473
▁sadfSaH	-11.3473
▁arj	-11.3474
niroD	-11.3474
tantu	-11.3476
udar	-11.3479
Ul	-11.3481
antarBavanti	-11.3481
pratyay	-11.3482
▁viDavA	-11.3484
▁arha	-11.3485
darSita	-11.3486
BAzye	-11.3487
YcA	-11.3487
SAlAyAH	-11.349
▁vyasana	-11.3491
zU	-11.3492
▁vikramaH	-11.3493
▁bIBatsuH	-11.3494
▁sfzwvA	-11.3494
▁avaSyaM	-11.3494
aSvaH	-11.3494
▁SyAva	-11.3495
▁atya	-11.3495
▁saKyam	-11.3496
▁satyaM	-11.3496
▁rUkzaH	-11.3496
▁pratizWApya	-11.3496
varttate	-11.3496
▁karRO	-11.3497
purIz	-11.3497
Gawwa	-11.3497
ucCvAsa	-11.3498
DAne	-11.3498
malEH	-11.35
vanaM	-11.35
dugDena	-11.3501
ArohaRa	-11.3504
▁janayAmAsa	-11.3504
▁pAtayet	-11.3508
▁saced	-11.3508
▁dolA	-11.3509
▁Bukti	-11.3509
Asakti	-11.351
aBilaz	-11.351
kArAya	-11.351
koRe	-11.3511
BUmim	-11.3511
lubD	-11.3511
▁sampUrRaM	-11.3512
Cid	-11.3513
▁SrezWAH	-11.3513
▁parvaRi	-11.3514
rogam	-11.3514
kAmam	-11.3515
▁purohita	-11.3516
▁kram	-11.3518
yASca	-11.352
▁gavA	-11.3521
▁gAlava	-11.3522
upAyam	-11.3524
srut	-11.3525
Yji	-11.3526
▁CAga	-11.3527
▁paramayA	-11.3527
upama	-11.3527
pekzayA	-11.3528
Ekya	-11.3529
▁aDikftya	-11.3529
arizwa	-11.353
▁Iha	-11.3532
yogyam	-11.3532
▁pret	-11.3533
SAka	-11.3533
Avfte	-11.3533
yik	-11.3533
▁SaSANka	-11.3534
▁deve	-11.3534
SaNkar	-11.3534
juzw	-11.3534
Svaram	-11.3535
cyutam	-11.3535
▁tAl	-11.3536
▁fRa	-11.3536
▁vaktA	-11.3536
▁praKyAta	-11.3537
rpaR	-11.3537
cyate	-11.3537
jayet	-11.3538
cir	-11.3539
SudDam	-11.3539
nde	-11.3541
▁moh	-11.3541
cakzuzA	-11.3544
▁maraRaM	-11.3545
IyAn	-11.3545
▁DOta	-11.3545
upapatti	-11.3546
▁saMprati	-11.3547
het	-11.3547
▁avahat	-11.3547
▁pariR	-11.3547
vadat	-11.3547
▁viBinnanagar	-11.3547
gatAnAm	-11.3547
PI	-11.3549
▁mIrA	-11.3549
nimittA	-11.3549
▁dagDam	-11.355
prayogA	-11.3552
aSvam	-11.3552
Dat	-11.3553
AvahA	-11.3554
nASan	-11.3555
izyAmaH	-11.3555
abja	-11.3555
▁samprAptA	-11.3557
▁himam	-11.3558
Bojan	-11.3559
alpe	-11.356
▁Sozayet	-11.356
paNkti	-11.3562
▁divAkaraH	-11.3563
marma	-11.3563
avyA	-11.3564
▁dAnena	-11.3564
atisAra	-11.3565
▁agninA	-11.3566
dik	-11.3566
putryA	-11.3567
▁tAlu	-11.3567
▁aNgAni	-11.3567
vAdiBiH	-11.3567
▁kzatriyA	-11.3568
devA	-11.3569
▁pratisaM	-11.357
▁AyuzmAn	-11.357
samasyA	-11.3571
▁sampravakzyAmi	-11.3572
▁vyomni	-11.3572
▁karavARi	-11.3572
▁suzWu	-11.3572
▁kAScana	-11.3572
▁nyavasat	-11.3572
▁vAyO	-11.3573
▁rudatI	-11.3573
niScita	-11.3573
▁rec	-11.3575
▁suraBi	-11.3575
vAma	-11.3576
▁karizyanti	-11.3577
paraSvaD	-11.3577
▁aparAD	-11.3577
vatyAH	-11.3578
▁sTApitavAn	-11.3578
▁basava	-11.3579
▁sTAtum	-11.358
annena	-11.358
▁niSc	-11.3581
▁nihate	-11.3582
atya	-11.3582
▁nijAm	-11.3582
tatparaH	-11.3582
aktam	-11.3583
▁hiN	-11.3584
▁niveSa	-11.3584
▁sparS	-11.3584
▁nArIRAm	-11.3585
▁kAvyam	-11.3586
sidDaH	-11.3586
▁maRqUka	-11.3586
▁lamba	-11.3586
▁indriyEH	-11.3587
lepanam	-11.3588
▁pitari	-11.3589
▁parIkz	-11.3589
gamanaM	-11.359
▁saMjYAm	-11.359
asuraH	-11.359
AKyAtam	-11.3591
▁mArjAra	-11.3591
ArADya	-11.3594
▁cora	-11.3595
kaRa	-11.3596
AQyaH	-11.3597
▁vimale	-11.3597
hiraRmay	-11.3598
ganDena	-11.3601
divy	-11.3601
▁vaYc	-11.3602
▁mUrtim	-11.3602
laNGan	-11.3603
hastAH	-11.3603
▁viw	-11.3604
aruR	-11.3606
▁ftvijaH	-11.3606
▁avatIrRaH	-11.3606
ryaH	-11.3608
▁DvaniH	-11.3608
▁CandasA	-11.3609
BUmikA	-11.3611
▁divyAH	-11.3613
darpa	-11.3613
deSIya	-11.3614
▁ganDarvEH	-11.3615
valaya	-11.3616
▁atizWat	-11.3617
▁pariRAmaH	-11.3619
apatya	-11.3622
hAreRa	-11.3623
samanvitA	-11.3624
bilva	-11.3624
▁janmanaH	-11.3624
▁labDam	-11.3626
vartinA	-11.3626
zWA	-11.3626
atiSay	-11.3627
AvatAra	-11.3627
aSanA	-11.3628
▁izu	-11.3628
▁SarIreRa	-11.363
BAjane	-11.3631
▁someSvara	-11.3631
rUpiRam	-11.3631
▁pataYjali	-11.3632
udDar	-11.3632
▁BUzaRa	-11.3633
▁kAverI	-11.3634
Anandam	-11.3635
▁varAnan	-11.3635
kulasya	-11.3636
▁DEryam	-11.3636
▁nItA	-11.3637
▁parivftaH	-11.3637
▁surAn	-11.3637
bAhya	-11.3639
avalamb	-11.3639
cint	-11.364
BavA	-11.364
dUzak	-11.3642
keSaH	-11.3642
▁sAkzI	-11.3642
hfzwa	-11.3643
samAgame	-11.3644
gulm	-11.3644
pUrv	-11.3644
spanda	-11.3646
bAnDavaH	-11.3646
▁pratiniDi	-11.3647
▁evaYca	-11.3648
jagAma	-11.365
gfhIt	-11.3651
▁sTAtavyam	-11.3651
▁ityetannagara	-11.3651
hetave	-11.3651
nAdaH	-11.3652
▁aDItya	-11.3652
▁pradAya	-11.3653
▁laByante	-11.3653
kzetr	-11.3654
udumbara	-11.3655
▁paS	-11.3656
bAnDava	-11.3656
▁sAmya	-11.3658
tEle	-11.3661
▁pravfttam	-11.3662
▁vinihat	-11.3662
kalp	-11.3663
ima	-11.3665
navam	-11.3665
▁puzw	-11.3665
Bawwa	-11.3666
▁kzamam	-11.3666
▁vastunaH	-11.3667
sPow	-11.3668
▁astrARi	-11.3668
kiwwa	-11.367
▁manoraTa	-11.367
▁manas	-11.367
nivftti	-11.367
▁udyata	-11.3671
▁parameSvaram	-11.3672
kalkam	-11.3672
anujaH	-11.3672
udita	-11.3673
uBayoH	-11.3673
viSrAnt	-11.3674
▁sTiram	-11.3674
▁somasya	-11.3675
GawanA	-11.3675
mAtrakam	-11.3677
▁svIkartu	-11.3678
▁eraRqa	-11.3678
▁vEzRav	-11.3678
vicArAH	-11.3678
▁Bitti	-11.3679
AlI	-11.3679
▁rAjaBiH	-11.3679
pradeSAH	-11.3681
▁purARe	-11.3681
▁coditaH	-11.3681
▁yAte	-11.3682
Aditas	-11.3682
mUly	-11.3682
▁sUkta	-11.3684
▁nirRay	-11.3686
▁kzura	-11.3687
▁dIptA	-11.3689
nivAsa	-11.369
▁utsahe	-11.3691
bravIt	-11.3693
qiyA	-11.3694
▁kzAr	-11.3696
saMsTitam	-11.3697
▁madyam	-11.3698
zoqaSa	-11.3699
paYcASattama	-11.37
yUT	-11.37
ugr	-11.37
Bojana	-11.3701
▁anusmaran	-11.3705
▁vftA	-11.3706
taptA	-11.3706
yur	-11.3706
vyaYjan	-11.3706
janapada	-11.3707
▁kzIreRa	-11.3708
vivaraR	-11.3708
UnAm	-11.3709
▁parIkzit	-11.371
▁vizAda	-11.371
vAriRA	-11.3711
aSuci	-11.3711
▁ASramaH	-11.3711
▁paYcasu	-11.3712
drutam	-11.3712
ambuda	-11.3712
▁SamaH	-11.3713
▁cedi	-11.3713
dahan	-11.3713
▁prAramBa	-11.3714
▁sTAn	-11.3715
▁mArgadarSana	-11.3715
rAje	-11.3715
sattvAH	-11.3715
▁indrA	-11.3715
▁kzI	-11.3716
gU	-11.3716
prakAreRa	-11.3716
▁kfpaRA	-11.3717
▁puzkar	-11.3718
nandA	-11.3718
▁varg	-11.3719
▁udDavaH	-11.3721
▁BAvAnAm	-11.3722
avyaktam	-11.3723
▁samagre	-11.3723
karaRAni	-11.3723
▁sADyAH	-11.3723
▁yajYAH	-11.3724
vESy	-11.3725
smaraR	-11.3725
saMmataH	-11.3726
bAI	-11.3727
asfjat	-11.3728
lop	-11.3729
▁jAtasya	-11.373
Aji	-11.373
▁etAdfSa	-11.373
arDe	-11.373
haMsa	-11.373
▁dvApare	-11.3731
▁menire	-11.3731
▁amuzya	-11.3732
▁prakAra	-11.3732
▁sAkziRaH	-11.3733
▁mUr	-11.3733
▁ityasmAt	-11.3733
▁avaDIt	-11.3734
nye	-11.3734
smaraRa	-11.3734
▁pracalanti	-11.3734
nAr	-11.3735
akzata	-11.3735
▁vfzyA	-11.3735
▁kAminI	-11.3736
▁sUrye	-11.3737
BAvasya	-11.3737
▁BagatasiMha	-11.3738
▁prARAyAm	-11.3738
▁OzaDam	-11.3739
▁kevalA	-11.374
avatAra	-11.3741
▁Gnanti	-11.3742
manu	-11.3742
lAl	-11.3746
▁niveSya	-11.3746
▁sammuKa	-11.3746
svaBAvaH	-11.3748
▁praRi	-11.3749
rv	-11.3749
varRasya	-11.3753
▁sTApayitu	-11.3754
yAsyanti	-11.3755
▁BIta	-11.3755
▁SataDA	-11.3756
▁videSa	-11.3757
ina	-11.3757
dUr	-11.3757
▁vamana	-11.3758
▁mAlAm	-11.3759
AhvayA	-11.3759
▁saMskftaBAzAyA	-11.3761
vAN	-11.3763
mAtaNga	-11.3763
siMhasya	-11.3763
▁mudam	-11.3764
▁at	-11.3765
gAm	-11.3765
▁vidyADar	-11.3765
▁ajYAnAt	-11.3766
aSakya	-11.3766
Suk	-11.3767
Cind	-11.3771
ojasA	-11.3771
▁kEkey	-11.3774
▁prezitA	-11.3777
▁leKakaH	-11.3777
▁yAsk	-11.3778
▁indriy	-11.3778
maRiH	-11.3778
▁paramArTa	-11.3779
▁pratyud	-11.378
Dda	-11.3781
anyezAm	-11.3781
▁upalaByante	-11.3782
SaNkayA	-11.3784
dArikA	-11.3785
kaTAH	-11.3785
viBUzitA	-11.3793
ulkA	-11.3793
▁tEjas	-11.3794
bIjAni	-11.3794
sADvas	-11.3794
▁vijayam	-11.3795
▁pAdaH	-11.3796
vraja	-11.3799
mukt	-11.3799
▁uz	-11.3799
BARqe	-11.38
▁nAgA	-11.38
coditaH	-11.3802
kleS	-11.3803
▁pArTivAn	-11.3803
pUrita	-11.3803
▁Acakzva	-11.3804
▁pravizwA	-11.3804
▁kzetrasya	-11.3804
avaSez	-11.3804
uktavAn	-11.3804
▁devarAja	-11.3804
▁vyoza	-11.3804
▁svayaMvara	-11.3805
▁rakte	-11.3807
▁Bokzy	-11.3807
anyatas	-11.3808
samfdD	-11.3808
▁samyaksaMboD	-11.381
vfttayaH	-11.381
▁kasmiMScit	-11.381
▁godAvarI	-11.3811
▁bahUnAm	-11.3812
▁trapu	-11.3813
▁svAminaH	-11.3814
▁ulliKitam	-11.3815
fc	-11.3816
▁nirasta	-11.3816
ahAni	-11.3818
▁kAritam	-11.3823
BAratasya	-11.3824
▁dEvAt	-11.3824
▁bADate	-11.3824
saMskAraH	-11.3825
gamanAt	-11.3825
▁kOrav	-11.3825
▁vigrahaH	-11.3826
lANgal	-11.3827
viSa	-11.3827
naK	-11.3828
budDeH	-11.3829
sutAH	-11.3829
▁viDatte	-11.3829
kvATe	-11.3832
dizwa	-11.3832
rela	-11.3833
rogasya	-11.3834
▁yAdfS	-11.3834
druti	-11.3834
▁fta	-11.3834
▁viSudD	-11.3835
vizayAH	-11.3836
▁divyAm	-11.3836
paYcam	-11.3837
pawala	-11.3838
▁prahar	-11.3838
▁mahatAm	-11.3839
imAM	-11.384
▁miTilA	-11.3841
▁vAli	-11.3841
▁anyezu	-11.3842
avas	-11.3843
▁vijYeyAH	-11.3844
▁vyati	-11.3845
BAratI	-11.3846
kramaR	-11.3848
pAtam	-11.3848
arTinA	-11.3848
▁sneham	-11.3848
diSaH	-11.3849
kArezu	-11.3849
▁SAsanakAle	-11.3849
udBUta	-11.385
cUrREH	-11.3852
aDipam	-11.3853
sTira	-11.3853
gfhARi	-11.3854
▁DUmaH	-11.3856
jalp	-11.3857
▁pradeSasya	-11.3858
▁sAmAnyam	-11.3859
unmAda	-11.3859
iqa	-11.386
triMSattama	-11.3861
mUlena	-11.3862
▁ityAdinA	-11.3862
aSIti	-11.3863
▁ADi	-11.3864
Mg	-11.3864
mahAvidyAlaye	-11.3865
▁islAm	-11.3865
BUtvA	-11.3866
▁sAMKy	-11.3868
SozaRa	-11.3868
▁vIrAn	-11.3868
rIRAm	-11.3869
kzepaRa	-11.387
yitavyA	-11.387
sarpiH	-11.387
nAti	-11.3871
puzwa	-11.3872
▁pAdena	-11.3873
▁devAya	-11.3874
▁jani	-11.3875
cezwa	-11.3875
▁dehalInagar	-11.3875
tfpti	-11.3876
BAvya	-11.3877
suDA	-11.3878
▁bARaH	-11.3878
▁paSyata	-11.3881
▁baDyate	-11.3881
geha	-11.3882
▁etAvatA	-11.3883
▁vasizWasya	-11.3883
star	-11.3884
BUyizWa	-11.3884
▁gujarAta	-11.3884
banDuH	-11.3886
▁saNgaH	-11.3888
araRya	-11.3889
▁vidDaH	-11.3889
swar	-11.3891
▁briwiz	-11.3891
▁jagfhuH	-11.3891
▁yuzmABiH	-11.3891
▁kAScid	-11.3891
▁cakzuzyam	-11.3891
▁dagDvA	-11.3891
▁drakzyasi	-11.3892
▁aGam	-11.3892
▁dAkziRAty	-11.3892
▁antarikzam	-11.3892
▁kalyARI	-11.3893
▁Avftya	-11.3893
▁prakawita	-11.3893
▁SucaH	-11.3893
▁muslima	-11.3894
▁BartrA	-11.3894
▁karizyasi	-11.3894
▁rUp	-11.3894
amAty	-11.3894
▁tannAma	-11.3894
tare	-11.3894
yAp	-11.3895
▁jYAtayaH	-11.3896
jalaprapAt	-11.3896
▁sureSvar	-11.3897
SrAv	-11.3901
BaNgaH	-11.3902
▁samudDaret	-11.3902
jAtA	-11.3903
▁paWati	-11.3903
bIjena	-11.3903
▁jEnaDarmasya	-11.3903
▁prAyaScitta	-11.3904
luk	-11.3904
▁eq	-11.3905
sarpati	-11.3905
▁mahattvam	-11.3905
AsTAya	-11.3906
▁yadvat	-11.3909
▁dUta	-11.3909
lol	-11.391
▁prayujyate	-11.391
▁prapadyate	-11.3911
▁ASritaH	-11.3912
▁antya	-11.3914
vinIt	-11.3914
▁kUpe	-11.3915
enApi	-11.3917
▁Dvasta	-11.3917
▁pUya	-11.3918
▁dvEpAyana	-11.3919
▁Kecara	-11.392
▁nirdizwa	-11.392
samanvitAH	-11.3921
▁GawotkacaH	-11.3922
▁sarasvatIm	-11.3924
upaBoga	-11.3924
BAnu	-11.3924
▁pavanaH	-11.3927
jihva	-11.3927
▁dEv	-11.3928
yadi	-11.3929
ahe	-11.3929
▁vijayAya	-11.3929
▁yamasya	-11.393
▁valmIka	-11.393
Satake	-11.3931
▁rAmacandra	-11.3933
▁hutam	-11.3933
jAlEH	-11.3934
▁ftam	-11.3934
▁BallAtaka	-11.3934
▁tIrTasya	-11.3934
pattram	-11.3935
▁ganDamAdana	-11.3935
asfj	-11.3935
▁darSane	-11.3935
▁saMkalp	-11.3936
▁praSama	-11.3937
▁Buvam	-11.3937
▁vajramUzA	-11.3937
▁jara	-11.3939
▁apavarga	-11.3943
▁paSuBiH	-11.3943
▁aDara	-11.3945
▁prAyaSa	-11.3945
▁GoraH	-11.3945
▁madirA	-11.3947
natas	-11.3947
ciCeda	-11.3948
▁AkramaRam	-11.3948
▁viSrutam	-11.3949
▁kukkuwa	-11.395
▁tras	-11.395
▁kalyARam	-11.3951
SakteH	-11.3951
▁vitt	-11.3951
tanayaH	-11.3952
▁vfdDam	-11.3952
gIr	-11.3953
▁fcaH	-11.3954
▁datte	-11.3954
DAriRI	-11.3954
▁visarga	-11.3955
mUlaH	-11.3956
▁durge	-11.3957
pUtam	-11.3958
▁BAmin	-11.3959
▁karRikA	-11.3961
▁niHSreyasa	-11.3962
AtmajAH	-11.3962
▁vaRijaH	-11.3962
▁SUr	-11.3963
anugam	-11.3964
BAryaH	-11.3965
▁vfkzAn	-11.3966
BfNg	-11.3968
pAlikA	-11.3968
pUrvaka	-11.397
En	-11.3971
▁devadAru	-11.3972
vasti	-11.3972
▁kAkamAcI	-11.3972
▁CandAMsi	-11.3972
▁saMvAda	-11.3972
▁samIcIna	-11.3972
▁arjunena	-11.3972
▁kramANk	-11.3973
vacanena	-11.3974
avatizWate	-11.3974
▁kfSaH	-11.3975
▁diva	-11.3975
Silp	-11.3976
▁krEsta	-11.3976
▁padmAvatI	-11.3977
saKaH	-11.3978
▁pratizeDa	-11.3979
aBizek	-11.3979
anva	-11.398
▁sUc	-11.398
▁praTa	-11.398
dAsasya	-11.3983
hotr	-11.3983
▁maraR	-11.3983
▁Akramya	-11.3983
▁pramuKe	-11.3983
ADyakz	-11.3984
▁cintayA	-11.3985
▁SIlam	-11.3989
▁bihArarAjy	-11.3991
▁samupa	-11.3991
upetya	-11.3991
anyatama	-11.3994
▁udakam	-11.3995
pAli	-11.3996
prakzAl	-11.3996
▁tAp	-11.3997
rTaH	-11.3997
▁upayog	-11.3999
▁pattra	-11.4001
pravfttiH	-11.4001
gatO	-11.4001
lAp	-11.4002
patsyate	-11.4002
rTe	-11.4002
▁mahAkavi	-11.4003
▁prasAdya	-11.4003
▁pratibimba	-11.4004
sPuwa	-11.4004
▁sUtre	-11.4005
pAram	-11.4008
▁upasTitaH	-11.4008
pAtr	-11.4009
tarpay	-11.4011
▁apramattaH	-11.4011
▁nUtanA	-11.4013
nod	-11.4014
▁sAgaraH	-11.4014
wam	-11.4016
▁cittasya	-11.4018
▁cakravartI	-11.4018
▁goptA	-11.4019
eraRqa	-11.4019
citram	-11.402
Boja	-11.402
mImAMsA	-11.402
marza	-11.4021
dre	-11.4023
▁nahuz	-11.4024
saNKy	-11.4025
▁kolakAtA	-11.4025
kAnana	-11.4026
▁suDIH	-11.4027
▁rakzet	-11.4028
▁arhaRa	-11.4028
▁parameSvar	-11.4029
▁praBAvitA	-11.4031
vfzwyA	-11.4032
svADyAy	-11.4033
▁ast	-11.4034
IritaH	-11.4035
asita	-11.4035
ucitam	-11.4036
lohAni	-11.4036
saktaH	-11.4037
dfSaH	-11.4038
pAlAH	-11.4038
nigrahaH	-11.4039
kri	-11.404
▁dik	-11.404
▁prArT	-11.404
SaraRa	-11.4041
vartana	-11.4041
arhaH	-11.4042
viyoga	-11.4042
SaWa	-11.4044
viBrama	-11.4044
▁dvipa	-11.4045
▁wa	-11.4045
▁gAn	-11.4046
▁pIqitaH	-11.4046
liKita	-11.4046
tattve	-11.4048
cc	-11.4048
grAmam	-11.4048
▁ityAKyA	-11.4048
SreRyA	-11.4049
▁AdiSat	-11.405
▁tanuH	-11.405
▁agnizwoma	-11.4054
▁mUrDnA	-11.4054
▁SatakratuH	-11.4054
kutUhal	-11.4054
▁vetTa	-11.4055
▁vEdehyA	-11.4056
▁darSayAmAsa	-11.4056
▁AgacCat	-11.4056
▁dfzwe	-11.4057
▁kaTyante	-11.4057
mardyam	-11.4057
▁niveSayet	-11.4057
▁vasudevaH	-11.4058
sahizRu	-11.4059
vawa	-11.4059
vIreRa	-11.4059
▁Soz	-11.4059
jaNG	-11.406
▁vAsanA	-11.406
[...]
